{"[PAD]":0,"!":1,"\"":2,"#":3,"$":4,"%":5,"&":6,"'":7,"(":8,")":9,"*":10,"+":11,",":12,"-":13,".":14,"/":15,"0":16,"1":17,"2":18,"3":19,"4":20,"5":21,"6":22,"7":23,"8":24,"9":25,":":26,";":27,"<":28,"=":29,">":30,"?":31,"@":32,"A":33,"B":34,"C":35,"D":36,"E":37,"F":38,"G":39,"H":40,"I":41,"J":42,"K":43,"L":44,"M":45,"N":46,"O":47,"P":48,"Q":49,"R":50,"S":51,"T":52,"U":53,"V":54,"W":55,"X":56,"Y":57,"Z":58,"[":59,"\\":60,"]":61,"^":62,"_":63,"`":64,"a":65,"b":66,"c":67,"d":68,"e":69,"f":70,"g":71,"h":72,"i":73,"j":74,"k":75,"l":76,"m":77,"n":78,"o":79,"p":80,"q":81,"r":82,"s":83,"t":84,"u":85,"v":86,"w":87,"x":88,"y":89,"z":90,"{":91,"|":92,"}":93,"~":94,"¡":95,"¢":96,"£":97,"¤":98,"¥":99,"¦":100,"§":101,"¨":102,"©":103,"ª":104,"«":105,"¬":106,"®":107,"¯":108,"°":109,"±":110,"²":111,"³":112,"´":113,"µ":114,"¶":115,"·":116,"¸":117,"¹":118,"º":119,"»":120,"¼":121,"½":122,"¾":123,"¿":124,"À":125,"Á":126,"Â":127,"Ã":128,"Ä":129,"Å":130,"Æ":131,"Ç":132,"È":133,"É":134,"Ê":135,"Ë":136,"Ì":137,"Í":138,"Î":139,"Ï":140,"Ð":141,"Ñ":142,"Ò":143,"Ó":144,"Ô":145,"Õ":146,"Ö":147,"×":148,"Ø":149,"Ù":150,"Ú":151,"Û":152,"Ü":153,"Ý":154,"Þ":155,"ß":156,"à":157,"á":158,"â":159,"ã":160,"ä":161,"å":162,"æ":163,"ç":164,"è":165,"é":166,"ê":167,"ë":168,"ì":169,"í":170,"î":171,"ï":172,"ð":173,"ñ":174,"ò":175,"ó":176,"ô":177,"õ":178,"ö":179,"÷":180,"ø":181,"ù":182,"ú":183,"û":184,"ü":185,"ý":186,"þ":187,"ÿ":188,"Ā":189,"ā":190,"Ă":191,"ă":192,"Ą":193,"ą":194,"Ć":195,"ć":196,"Ĉ":197,"ĉ":198,"Ċ":199,"ċ":200,"Č":201,"č":202,"Ď":203,"ď":204,"Đ":205,"đ":206,"Ē":207,"ē":208,"Ĕ":209,"ĕ":210,"Ė":211,"ė":212,"Ę":213,"ę":214,"Ě":215,"ě":216,"Ĝ":217,"ĝ":218,"Ğ":219,"ğ":220,"Ġ":221,"ġ":222,"Ģ":223,"ģ":224,"Ĥ":225,"ĥ":226,"Ħ":227,"ħ":228,"Ĩ":229,"ĩ":230,"Ī":231,"ī":232,"Ĭ":233,"ĭ":234,"Į":235,"į":236,"İ":237,"ı":238,"Ĳ":239,"ĳ":240,"Ĵ":241,"ĵ":242,"Ķ":243,"ķ":244,"ĸ":245,"Ĺ":246,"ĺ":247,"Ļ":248,"ļ":249,"Ľ":250,"ľ":251,"Ŀ":252,"ŀ":253,"Ł":254,"ł":255,"Ń":256,"Ġt":257,"Ġa":258,"Ġth":259,"in":260,"re":261,"on":262,"ou":263,"Ġthe":264,"Ġs":265,"er":266,"is":267,"Ġw":268,"at":269,"it":270,"ed":271,"or":272,"Ġb":273,"Ġc":274,"le":275,"an":276,"en":277,"Ġp":278,"ing":279,"Ġto":280,"Ġm":281,"Ġf":282,"Ġo":283,"Ġh":284,"Ġan":285,"es":286,"Ġd":287,"al":288,"ic":289,"ĠI":290,"Ġy":291,"Ġn":292,"Ġyou":293,"Ġof":294,"Ġin":295,"as":296,"ar":297,"ion":298,"Ġand":299,"ot":300,"Ġre":301,"om":302,"us":303,"Ġbe":304,"Ġis":305,"ve":306,"ly":307,"Ġthat":308,"ll":309,"Ġl":310,"\"\"":311,"Ġit":312,"Ġon":313,"ent":314,"ag":315,"ct":316,"Ġwh":317,"Ġe":318,"ĠT":319,"Ġg":320,"ut":321,"ow":322,"Ġnot":323,"id":324,"Ġfor":325,"im":326,"ik":327,"he":328,"ĠW":329,"ĠA":330,"ld":331,"ro":332,"ver":333,"ce":334,"Ġha":335,"st":336,"Ġas":337,"ay":338,"th":339,"tic":340,"Ġar":341,"ia":342,"ig":343,"ere":344,"ĠS":345,"ck":346,"am":347,"ad":348,"se":349,"Ġcon":350,"Ġthis":351,"ith":352,"Ġ(":353,"ch":354,"un":355,"ation":356,"age":357,"if":358,"ticle":359,"ip":360,"Ġare":361,"Ġst":362,"Ġhave":363,"Ġarticle":364,"Ġse":365,"ould":366,"op":367,"ol":368,"out":369,"ist":370,"Ġwith":371,"Ġde":372,"'s":373,"ĠC":374,"Ġ\"\"":375,"ate":376,"ĠB":377,"Ġyour":378,"Ġor":379,"Ġdo":380,"Ġsu":381,"!!":382,"ome":383,"ĠP":384,"edia":385,"Ġwas":386,"ir":387,"et":388,"our":389,"ĠM":390,"Ġus":391,"'t":392,"ers":393,"and":394,"il":395,"Ġme":396,"est":397,"el":398,"ill":399,"edit":400,"Ġedit":401,"ikip":402,"Ġat":403,"ak":404,"..":405,"ur":406,"Ġab":407,"ht":408,"oo":409,"ain":410,"ikipedia":411,"rom":412,"ore":413,"pp":414,"Ġpro":415,"qu":416,"Ġsh":417,"ĠH":418,"Ġpage":419,"ri":420,"Ġne":421,"ble":422,"ul":423,"ĠD":424,"Ġad":425,"ĠF":426,"Ġbut":427,"alk":428,"Ġex":429,"Ġk":430,"ust":431,"Ġun":432,"ment":433,"Ġr":434,"ter":435,"ase":436,"ant":437,"Ġmy":438,"Ġv":439,"Ġwe":440,"ally":441,"Ġcom":442,"ĠY":443,"ĠN":444,"ink":445,"Ġcan":446,"Ġfrom":447,"let":448,"Ġby":449,"pe":450,"Ġsome":451,"Ġcont":452,"Ġal":453,"em":454,"Ġany":455,"Ġso":456,"ĠWikipedia":457,"ĠThe":458,"nd":459,"han":460,"Ġj":461,"nt":462,"ĠR":463,"Ġabout":464,"ie":465,"ss":466,"lo":467,"ther":468,"up":469,"ive":470,"ĠG":471,"ight":472,"Ġ2":473,"Ġhe":474,"ra":475,"Ġ\"":476,"ike":477,"Ġpo":478,"Ġ1":479,"ces":480,"ort":481,"one":482,"Ġdis":483,"ĠL":484,"Ġall":485,"Ġif":486,"lease":487,"ity":488,"Ġhas":489,"ame":490,"ions":491,"Ġwor":492,"Ġwill":493,"ĠE":494,"Ġwould":495,"la":496,"ard":497,"um":498,"Ġlike":499,"00":500,"ich":501,"Ġthere":502,"Ġle":503,"ĠO":504,"ĠJ":505,"Ġwhat":506,"now":507,"ry":508,"Ġim":509,"ect":510,"ite":511,"Ġone":512,"ous":513,"Ġadd":514,"ies":515,"âĢ":516,"ks":517,"Ġdelet":518,"ish":519,"Ġfa":520,"iv":521,"oug":522,"der":523,"ated":524,"Ġno":525,"art":526,"Ġbeen":527,"Ġthey":528,"Ġjust":529,"so":530,"Ġtalk":531,"Ġqu":532,"use":533,"Ġwho":534,"Ġup":535,"Ġknow":536,"Ġ-":537,"ian":538,"ake":539,"ud":540,"ure":541,"ge":542,"ack":543,"Ġshould":544,"ĠU":545,"ind":546,"ong":547,"Ġdon":548,"Ġag":549,"Ġint":550,"Ġother":551,"Ġwhich":552,"Ġsour":553,"ree":554,"end":555,"ue":556,"!!!!":557,"Ġmore":558,"ĠTh":559,"og":560,"ast":561,"ca":562,"very":563,"Ġac":564,"pl":565,"all":566,"Ġam":567,"ab":568,"Ġthink":569,"cl":570,"os":571,"ci":572,"for":573,"ide":574,"The":575,"rit":576,"Ġrem":577,"Ġgo":578,"Ġmo":579,"Ġev":580,"Ġout":581,"lock":582,"her":583,"ĠIf":584,"pt":585,"Ġhere":586,"Ġpe":587,"ell":588,"fere":589,"Ġhis":590,"ess":591,"able":592,"ople":593,"Ġsee":594,"cus":595,"ine":596,"ction":597,"ime":598,"ĠIt":599,"rib":600,"Ġpre":601,"ĠYou":602,"Ġuse":603,"Ġdid":604,"ound":605,"cause":606,"are":607,"ire":608,"Ġen":609,"Ġapp":610,"ook":611,"ages":612,"Ġthan":613,"Ġspe":614,"iz":615,"'m":616,"ough":617,"Ġpeople":618,"ood":619,"ary":620,"Ġsay":621,"...":622,"CK":623,"ign":624,"Ġbecause":625,"Ġdoes":626,"form":627,"ber":628,"Ġthem":629,"sion":630,"ear":631,"ĠK":632,"ory":633,"per":634,"int":635,"Ġonly":636,"ject":637,"ub":638,"ew":639,"od":640,"ove":641,"ors":642,"Ġget":643,"Ġmay":644,"Ġneed":645,"ence":646,"ved":647,"ism":648,"ep":649,"Ġwere":650,"ial":651,"thing":652,"erson":653,"Ġcons":654,"Ġtr":655,"ĠâĢ":656,"Ġarticles":657,"Ġalso":658,"Ġtime":659,"ice":660,"ious":661,"Ġch":662,"Ġhow":663,"lf":664,"Ġwant":665,"uck":666,"OU":667,"Ġres":668,"Ġman":669,"Ġlink":670,"Ġthen":671,"ile":672,"ap":673,"ose":674,"Ġbeing":675,"ff":676,"Ġblock":677,"Ġi":678,"Ġwhen":679,"Ġtheir":680,"elp":681,"ced":682,"iew":683,").":684,"ens":685,"Ġdiscus":686,"Ġunder":687,"ount":688,"Ġperson":689,"ations":690,"feren":691,"Ġact":692,"Ġchan":693,"ict":694,"vert":695,"Ġcomp":696,"Ġatt":697,"ical":698,"ult":699,"Ġinform":700,"Ġ200":701,"Ġagain":702,"ser":703,"ac":704,"Ġsub":705,"Ġhad":706,"ans":707,"Ġread":708,"Ġmake":709,"self":710,"min":711,"Ġcre":712,"ty":713,"//":714,"Ġcomment":715,"Ġhelp":716,"ass":717,"Ġplease":718,"Ġgu":719,"hat":720,"Ġwork":721,"ade":722,"Ġimp":723,"Ġnow":724,"ex":725,"==":726,"Ġoff":727,"'ve":728,"UCK":729,"Ġwhy":730,"Ġfact":731,"Ġrep":732,"Ġpol":733,"Ġway":734,"''":735,"ings":736,"Ġper":737,"Ġrel":738,"Ġeven":739,"ĠYOU":740,"ason":741,"Ġcould":742,"ph":743,"Ġlist":744,"act":745,"Ġinformation":746,"ribut":747,"com":748,"Ġvery":749,"Ġbel":750,"Ġpoint":751,"ĠThan":752,"Ġuser":753,"Ġnew":754,"con":755,"nn":756,"ick":757,"les":758,"Ġwr":759,"Ġquest":760,"ress":761,"irst":762,"andal":763,"Ġsa":764,"Ġsources":765,"ER":766,"fore":767,"Ġsuch":768,"Ġgood":769,"iki":770,"Ġname":771,"uch":772,"ĠIn":773,"way":774,"Ġlook":775,"ific":776,"ving":777,"Ġdeletion":778,"Ġpages":779,"ĠThis":780,"ention":781,"Ġits":782,"ual":783,"Ġmat":784,"Ġseem":785,"Ġacc":786,"Ġover":787,"Ġdes":788,"ince":789,"ful":790,"other":791,"ition":792,"ates":793,"ail":794,"Ġediting":795,"Ġback":796,"Ġbet":797,"ance":798,"ĠV":799,"Ġedits":800,"ĠPlease":801,"Ġincl":802,"'re":803,"reat":804,"Ġremo":805,"Ġ'":806,"Ġsource":807,"Ġfind":808,"ĠWP":809,"gu":810,"You":811,"Ġpla":812,"wn":813,"ple":814,"Ġreason":815,"Ġco":816,"ĠCh":817,"itt":818,"Ġmade":819,"UT":820,"Ġsection":821,"lish":822,"!!!!!!!!":823,"Ġass":824,"ually":825,"Ġreferen":826,"Ġwell":827,"Ġind":828,"Ġcontribut":829,"ach":830,"Ġfo":831,"Ġask":832,"Ġhim":833,"Ġfirst":834,"Ġpar":835,"Ġthese":836,"arn":837,"Ġrevert":838,"Ġ19":839,"Ġrec":840,"ord":841,"ĠSt":842,"Ġgr":843,"ng":844,"Ġvandal":845,"Ġpl":846,"Ġmuch":847,"Ġtoo":848,"come":849,"Ġpr":850,"Ġdif":851,"Ġpart":852,"Ġused":853,"Ġcle":854,"Ġob":855,"Ġfe":856,"Ġsp":857,"fter":858,"erm":859,"Ġright":860,"ĠTH":861,"Ġdeleted":862,"ote":863,"Ġtw":864,"),":865,"01":866,"Ġtry":867,"cept":868,"arch":869,"Ġwhere":870,"cy":871,"Ġinto":872,"Ġreally":873,"IN":874,"Ġmost":875,"Ġcl":876,"Ġsame":877,"Ġcomm":878,"Ġver":879,"ied":880,"hy":881,"du":882,"ise":883,"Ġevery":884,"Ġsupp":885,"opy":886,"Ġmany":887,"Ġadmin":888,"ating":889,"Ġtag":890,"Ġrequ":891,"Ġpost":892,"Ġdiscussion":893,"ib":894,"RE":895,"Ġinclud":896,"gg":897,"Ġown":898,"av":899,"ru":900,"ever":901,"Ġref":902,"Ġhist":903,"oc":904,"cess":905,"Ġreg":906,"Ġsim":907,"own":908,"ave":909,"read":910,"ting":911,"Ġword":912,"Ġcall":913,"Than":914,"Ġthose":915,"Ġbefore":916,"Ġconsid":917,"Ġexpl":918,"Th":919,"Ġop":920,"ost":921,"\"\".":922,"bo":923,"ered":924,"tp":925,"aking":926,"laim":927,"oth":928,"Ġcontent":929,"AT":930,"://":931,"LL":932,"IT":933,"ility":934,"ww":935,"ĠAnd":936,"ope":937,"olog":938,"arly":939,"Ġgen":940,"Ġpolic":941,"tern":942,"Ġbelie":943,"Ġent":944,"Ġiss":945,"Ġdef":946,"'ll":947,"ne":948,"orre":949,"blem":950,"right":951,"Ġcopy":952,"talk":953,"view":954,"Ġstate":955,"Ġsomeone":956,"Ġ3":957,"ears":958,"ext":959,"mer":960,"Ġafter":961,"Ġstill":962,"ĠAl":963,"ged":964,"Ġke":965,"Ġclaim":966,"rop":967,"ĠSo":968,"Ġtwo":969,"ON":970,"raph":971,"Ġprov":972,"less":973,"ee":974,"erest":975,"ten":976,"Ġfuck":977,"Ġput":978,"Ġcrit":979,"pect":980,".\"\"":981,"Ġproblem":982,"vers":983,"iable":984,"ible":985,"Please":986,"lic":987,"__":988,"Ġsomething":989,"Ġsaid":990,"oy":991,"red":992,"rat":993,"AN":994,"Ġblocked":995,"uth":996,"Ġsince":997,"stand":998,"Ġsubject":999,"ons":1000,"Ġinv":1001,"Ġgoing":1002,"ah":1003,"inal":1004,"Ġher":1005,"Ġche":1006,"ines":1007,"Ġwithout":1008,"ased":1009,"elcome":1010,"Ġinterest":1011,"Ġwrit":1012,"Ġshow":1013,"ĠHe":1014,"Ġfree":1015,"Ġcontin":1016,"Ġimage":1017,"Ġeditors":1018,"ments":1019,"Ġour":1020,"Ġmention":1021,"the":1022,"Ġcit":1023,"orrect":1024,"ense":1025,"If":1026,"Ġweb":1027,"Ġtake":1028,"Ġadded":1029,"Ġtop":1030,"Ġconf":1031,"ĠRe":1032,"UTC":1033,"Ġquestion":1034,"Ġser":1035,"Ġplace":1036,"hing":1037,"tain":1038,"Ġmight":1039,"ob":1040,"Ġremoved":1041,"ought":1042,"ily":1043,"ild":1044,"llow":1045,"Ġmean":1046,"Ġsure":1047,"ĠTalk":1048,"ug":1049,"we":1050,"OT":1051,"ft":1052,"Ġcur":1053,"ather":1054,"Ġview":1055,"Ġlong":1056,"Ġdec":1057,"Ġstart":1058,"gr":1059,"ĠAr":1060,"ident":1061,"ĠTHE":1062,"ggest":1063,"ĠBut":1064,"rent":1065,"vious":1066,"Ġcase":1067,"Ġstop":1068,"Ġpub":1069,"Ġreal":1070,"ĠAs":1071,"ĠThere":1072,"Ġinf":1073,"be":1074,"OV":1075,"ĠHow":1076,"ize":1077,"ven":1078,"Ġsign":1079,"Ġmess":1080,"Ġdone":1081,"Ġday":1082,"ative":1083,"Ġdoesn":1084,"Ġfeel":1085,"It":1086,"ards":1087,"Ġmis":1088,"Ġspec":1089,"AH":1090,"Ġinst":1091,"Ġsuggest":1092,"ĠThanks":1093,"Ġunderstand":1094,"Ġfollow":1095,"Ġanother":1096,"Hi":1097,"ĠThat":1098,"Ġlet":1099,"This":1100,"sent":1101,"??":1102,"ont":1103,"Ġattack":1104,"Re":1105,"ics":1106,"Ġel":1107,"Ġseems":1108,"Ġnever":1109,"ES":1110,"ale":1111,"ull":1112,"ably":1113,"not":1114,"ran":1115,"Ġorig":1116,"ational":1117,"ern":1118,"sh":1119,"Ġbelieve":1120,"Ġlinks":1121,"ral":1122,"irect":1123,"Ġbit":1124,"Ġpersonal":1125,"ond":1126,"19":1127,"Ġph":1128,"Ġbetter":1129,"Ġkeep":1130,"Ġhapp":1131,"led":1132,"ĠIs":1133,"ring":1134,"Ġanything":1135,"Ġrequest":1136,"Ġ.":1137,"Ġwikipedia":1138,"aw":1139,"ix":1140,"Ġsupport":1141,"Ġspeed":1142,"Ġhope":1143,"Ġusing":1144,"ĠUn":1145,"ĠâĢ¢":1146,"Ġhistory":1147,"Ġcomments":1148,"Ġnum":1149,"Ġthings":1150,"here":1151,"Ġyourself":1152,"az":1153,"Ġthr":1154,"Ġgiv":1155,"Ġbi":1156,"FF":1157,"Ġwar":1158,"ĠAn":1159,"\"\",":1160,"igh":1161,"'d":1162,"~~":1163,"old":1164,"ready":1165,"Ġcopyright":1166,"ĠThank":1167,"Ġagainst":1168,"ann":1169,"Ġdesc":1170,"clop":1171,"Ġdiscuss":1172,"akes":1173,"Ġgener":1174,"Ġcheck":1175,"ath":1176,"Ġeditor":1177,"ames":1178,"ians":1179,"imes":1180,"Ġpolicy":1181,"lect":1182,"ists":1183,"ither":1184,"Ġfound":1185,"Ġalready":1186,"Ġthing":1187,"ark":1188,"ĠWh":1189,"Ġopin":1190,"Ġagree":1191,"ferent":1192,"In":1193,"ute":1194,"Ġwrong":1195,"Ġ201":1196,"Ġexam":1197,"Ġte":1198,"ĠWe":1199,"vel":1200,"cyclop":1201,"Ġdidn":1202,"Ġboth":1203,"Ġcount":1204,"ically":1205,"ID":1206,"Ġactually":1207,"Ġexplain":1208,"Ġterm":1209,"::":1210,"Ġresp":1211,"Ġnote":1212,"ittle":1213,"aj":1214,"Ġcurrent":1215,"ature":1216,"Ġdifferent":1217,"cial":1218,"thers":1219,"Ġchange":1220,"Ġem":1221,"Ġsc":1222,"Ġform":1223,"Ġshe":1224,"nnnn":1225,"Ġremove":1226,"Ġwelcome":1227,"Ġelse":1228,"Ġfew":1229,"ves":1230,"Ġexper":1231,"Ġru":1232,"Ġsm":1233,"mm":1234,"ited":1235,"Ġcorrect":1236,"IG":1237,"lev":1238,"Thanks":1239,"Ġsy":1240,"tyty":1241,"FUCK":1242,"Ġtext":1243,"Ġtrying":1244,"Ġothers":1245,"Ġmain":1246,"ey":1247,"Ġaccount":1248,"Ġtem":1249,"ify":1250,"ĠEng":1251,"ace":1252,"ooks":1253,"ĠâĢĶ":1254,"Ġbl":1255,"Ġreview":1256,"Ġabove":1257,"ensus":1258,"Ġpartic":1259,"Ġexp":1260,"OL":1261,"Ġnothing":1262,"oup":1263,"ges":1264,"land":1265,"Ġwon":1266,"Ġlittle":1267,"ĠFUCK":1268,"Ġconsider":1269,"Ġide":1270,"Ġthough":1271,"ger":1272,"org":1273,"ateg":1274,"ular":1275,"Ġquestions":1276,"got":1277,"Ġyears":1278,"Ġ,":1279,"Ġgreat":1280,"Ġprop":1281,"ife":1282,"Ġvandalism":1283,"ĠAN":1284,"any":1285,"Ġimport":1286,"Ġtell":1287,"ertain":1288,"Ġ5":1289,"Ġwhile":1290,"Ġissue":1291,"Ġro":1292,"Ġfair":1293,"Ġcare":1294,"11":1295,"Ġguid":1296,"orry":1297,"cond":1298,"Ġmust":1299,"Ġlast":1300,"ead":1301,"ING":1302,"Ġposs":1303,"....":1304,"ograph":1305,"of":1306,"meric":1307,"box":1308,"Ġencyclop":1309,"Ġanyone":1310,"Ġgot":1311,"Ġconc":1312,"Ġinc":1313,"Ġthrough":1314,"ĠIP":1315,"Ġrather":1316,"ody":1317,"Ġaddress":1318,"AHAH":1319,"ars":1320,"Ġcontinue":1321,"Ġreliable":1322,"SE":1323,"erial":1324,"urther":1325,"Ġ4":1326,"ys":1327,"ok":1328,"Ġmaking":1329,"aps":1330,"Ġet":1331,"Ġthought":1332,"ĠWhat":1333,"Ġfar":1334,"Ġreference":1335,"ĠDe":1336,"angu":1337,"load":1338,"upp":1339,"Ġ[":1340,"me":1341,"Ġstand":1342,"=\"\"":1343,"Ġgive":1344,"io":1345,"osed":1346,"Ġend":1347,"http":1348,"Ġnon":1349,"ool":1350,"ues":1351,"pr":1352,"Ġsent":1353,"Ġcour":1354,"urn":1355,"Ġaccept":1356,"ply":1357,"Ġwebs":1358,"Ġspeedy":1359,"Ġsays":1360,"lete":1361,"Ġlot":1362,"Ġreport":1363,"Ġguidel":1364,"ution":1365,"Ġinter":1366,"Ġins":1367,"ropri":1368,"Ġdoing":1369,"idence":1370,"ately":1371,"bably":1372,"!!!!!!!!!!!!!!!!":1373,"Ġreferences":1374,"Ġplay":1375,"Ġsite":1376,"app":1377,"Ġmaterial":1378,"Ġbest":1379,"Ġleast":1380,"Ġcome":1381,"its":1382,"Ġ)":1383,"search":1384,"ified":1385,"How":1386,"ween":1387,"ently":1388,"ello":1389,"Ġ7":1390,"Ġoriginal":1391,"Ġtit":1392,"ents":1393,"Ġdefin":1394,"ways":1395,"Ġargu":1396,"orn":1397,"Ġcreated":1398,"Ġ|":1399,"ater":1400,"Ġbr":1401,"Ġworld":1402,"ĠDo":1403,"sw":1404,"Ġcriter":1405,"Ġsch":1406,"ĠCom":1407,"Ġsimply":1408,"man":1409,"ret":1410,"Ġdown":1411,"Ġcertain":1412,"wh":1413,"Ġwarn":1414,"omin":1415,"IS":1416,"Ġbetween":1417,"istrat":1418,"Ġenough":1419,"yle":1420,"Ġca":1421,"Ġexist":1422,"Ġgroup":1423,"AG":1424,"âĢĻ":1425,"Ġ6":1426,"atch":1427,"rip":1428,"Ġbeh":1429,"ided":1430,"Ġisn":1431,"cc":1432,"Ġleave":1433,"Ġopinion":1434,"Hello":1435,"Ġdelete":1436,"Ġaround":1437,"Ġauth":1438,"ropriate":1439,"Ġcol":1440,"Ġreverted":1441,"Ġfag":1442,"Ġadding":1443,"Ġold":1444,"Ġconsensus":1445,"IE":1446,"Ġcontributions":1447,"ĠAmeric":1448,"icture":1449,"err":1450,"Ġrest":1451,"Ġetc":1452,"day":1453,"Ġlangu":1454,"ier":1455,"ĠFor":1456,"Ġmon":1457,"RA":1458,"Ġusers":1459,"Ġprobably":1460,"ang":1461,"ĠIS":1462,"Ġexample":1463,"Ġav":1464,"Ġmessage":1465,"ized":1466,"Ġunt":1467,"iol":1468,"als":1469,"ĠEnglish":1470,"Ġresearch":1471,"sp":1472,"Ġmin":1473,"Ġmatter":1474,"Ġcalled":1475,"Ġ8":1476,"Ġeff":1477,"Ġregard":1478,"Ġimpro":1479,"Ġclear":1480,"ĠSh":1481,"OR":1482,"Ġwrite":1483,"ED":1484,"mage":1485,"Ġty":1486,"Ġprom":1487,"Ġeither":1488,"Ġnotable":1489,"Ġlog":1490,"Ġht":1491,"Ġtempl":1492,"ank":1493,"Ġchar":1494,"Ġimportant":1495,"levant":1496,"Ġneeds":1497,"Ġext":1498,"''''":1499,"ology":1500,"ĠWiki":1501,"Ġkind":1502,"www":1503,"12":1504,"Ġsit":1505,"ract":1506,"ese":1507,"Ġhttp":1508,"Ġpos":1509,"gan":1510,"Ġupload":1511,"Ġcommun":1512,"ruct":1513,"ĠHowever":1514,"Ġfaggot":1515,"ts":1516,"Ġdisp":1517,"Ġred":1518,"rist":1519,"Ġprodu":1520,"ef":1521,"10":1522,"Ġbook":1523,"ren":1524,"oh":1525,"Ġviol":1526,"Ġval":1527,"ability":1528,"Ġspecific":1529,"Ġlife":1530,"amp":1531,"HIT":1532,"ised":1533,"Ġfun":1534,"OO":1535,"ĠAlso":1536,"ews":1537,"haps":1538,"Ġdet":1539,"Ġtrans":1540,";=":1541,"Ġnor":1542,"Ġinvol":1543,"What":1544,"Ġwhe":1545,"Ġnumber":1546,"Ġmove":1547,"ower":1548,"ision":1549,"Ġversion":1550,"Ġevidence":1551,"Ġwebsite":1552,"Ġbad":1553,"Ġsex":1554,"Ġever":1555,"Ġpicture":1556,"Ġinfo":1557,"Ġallow":1558,"ric":1559,"ĠUser":1560,"ĠNo":1561,"ĠThey":1562,"Ġimages":1563,"Ġclearly":1564,"tion":1565,"Ġhigh":1566,"Ġstr":1567,"Ġsecond":1568,"Ġguidelines":1569,"Ġconst":1570,"ĠYour":1571,"mb":1572,"ĠSe":1573,"Ġaw":1574,"Ġnotice":1575,"Ġpublic":1576,"uff":1577,"Ġsumm":1578,"Ġsaying":1579,"Ġcomplete":1580,"User":1581,"Ġcriteria":1582,"ock":1583,"ging":1584,"empt":1585,"AL":1586,"Ġlead":1587,"Ġyet":1588,"Ġconcern":1589,"Ġgiven":1590,"ox":1591,"18":1592,"Ġtrue":1593,"Ġcontro":1594,"Ġadv":1595,"ember":1596,"Ġwritten":1597,"Ġalways":1598,"ĠUS":1599,"ony":1600,"Ġwiki":1601,"Ġencyclopedia":1602,"Ġquite":1603,"Ġobvious":1604,"____":1605,"Ġ9":1606,"Ġhaving":1607,"Ġdirect":1608,"Ġfurther":1609,"utral":1610,"ities":1611,"Ġmor":1612,"Ġleg":1613,"Ġansw":1614,"riend":1615,"Ġfam":1616,"Ġwhether":1617,"mber":1618,"Ġtri":1619,"Ġconsidered":1620,"line":1621,"20":1622,"EN":1623,"ĠInd":1624,"ĠPOV":1625,"ash":1626,"iss":1627,"air":1628,".\"":1629,"Thank":1630,"Ġadministrat":1631,"te":1632,"Ġmakes":1633,"ĠBe":1634,"Ġwee":1635,"lished":1636,"Ġpresent":1637,"Ġlisted":1638,"14":1639,"Ġtest":1640,"ĠMy":1641,"cient":1642,"Ġfl":1643,"!!!":1644,"Ġlanguage":1645,"Ġstud":1646,"Ġleft":1647,"Ġuntil":1648,"Ġcannot":1649,"Ġinstead":1650,"otect":1651,"ajor":1652,"veral":1653,"ork":1654,"Ġhappen":1655,"ĠPro":1656,"Ġclo":1657,"Ġchanges":1658,"Ġbig":1659,"usion":1660,"Ġret":1661,"No":1662,"Ġhard":1663,"Ġdist":1664,"ets":1665,"Your":1666,"uss":1667,"17":1668,"Ġseveral":1669,"Ġwords":1670,"Ġwish":1671,"Ġhand":1672,"Ġidea":1673,"Ġmedia":1674,"ĠAd":1675,"Ġrefer":1676,"zer":1677,"aken":1678,"Ġ0":1679,"uring":1680,"Ġu":1681,"Ġsur":1682,"reci":1683,"Ġfollowing":1684,"oun":1685,"att":1686,"Ġauthor":1687,"Ġproper":1688,"Ġpolit":1689,"Ġ&":1690,"Ġoffic":1691,"Ġdetail":1692,"cks":1693,"Ġtitle":1694,"hip":1695,"Ġcourse":1696,"Ġsing":1697,"stem":1698,"ude":1699,"Ġless":1700,"ĠLOL":1701,"body":1702,"Al":1703,"As":1704,"There":1705,"Ġthree":1706,"Ġentire":1707,"33":1708,"Ġwhole":1709,"Ġtimes":1710,"Ġmind":1711,"Ġ==":1712,"Ġattempt":1713,"Ġpop":1714,"Ġopp":1715,"Ġlearn":1716,"Ġfil":1717,"Ġdate":1718,"Ġmeans":1719,"Ġpossible":1720,"St":1721,"Ar":1722,"000":1723,"Ġign":1724,"Ġinclude":1725,"Ġbas":1726,"vern":1727,"ĠCan":1728,"Ġmentioned":1729,"my":1730,"Ġeas":1731,"Ġstatement":1732,"name":1733,"to":1734,"Ġeach":1735,"15":1736,"Ġyear":1737,"Ġresult":1738,"where":1739,"Ġstat":1740,"Ġap":1741,"ground":1742,"uc":1743,"Ġappreci":1744,"16":1745,"med":1746,"Ġaut":1747,"Ġproject":1748,"Ġbased":1749,"Ġdisc":1750,"ler":1751,"ĠOr":1752,"pg":1753,"ribs":1754,"Ġlar":1755,"though":1756,"ins":1757,"Ġuns":1758,"Ġrequire":1759,"Ġfacts":1760,"ategory":1761,"Ġmajor":1762,"Ġdescrib":1763,"Ġtemplate":1764,"ness":1765,"Ġseen":1766,"SS":1767,"ho":1768,"Ġ18":1769,"And":1770,"Ġissues":1771,"ĠFe":1772,"CT":1773,"Ġfour":1774,"cing":1775,"outh":1776,"block":1777,"Ġpast":1778,"AR":1779,"rup":1780,"istic":1781,"Ġobject":1782,"Ġcr":1783,"ĠNOT":1784,"Ġtopic":1785,"Ġstyle":1786,"ories":1787,"ĠOF":1788,"arent":1789,"22":1790,"Ġmer":1791,"res":1792,"ives":1793,"Ġpret":1794,"Ġcreate":1795,"AA":1796,"Talk":1797,"Ġhead":1798,"ording":1799,"dit":1800,"Ġfriend":1801,"Ġonce":1802,"Ġgeneral":1803,"Ġfix":1804,"Ġvar":1805,"ward":1806,"Ġpur":1807,"Ġsense":1808,"An":1809,"xt":1810,"Ġmyself":1811,"inn":1812,"Ġhar":1813,"cially":1814,"Pro":1815,"Ġset":1816,"Ġshort":1817,"Ġsol":1818,"ĠMY":1819,"Ġappropriate":1820,"}}":1821,"iet":1822,"ĠDIE":1823,"Ġes":1824,"ional":1825,"Ġanswer":1826,"uation":1827,"ĠNew":1828,"OCK":1829,"ina":1830,"Ġmoron":1831,"13":1832,"Ġprovide":1833,"CH":1834,"Ġexact":1835,"Ġdays":1836,".)":1837,"ĠZ":1838,"Ġaccus":1839,"Ġassum":1840,"ax":1841,"Ġknown":1842,"ivers":1843,"Ġrules":1844,"Ġlaw":1845,"ared":1846,"PC":1847,"by":1848,"Is":1849,"ides":1850,"Ġindic":1851,"Ġincluded":1852,"Ġphot":1853,"ikiped":1854,"LE":1855,"de":1856,"ledge":1857,"Ġcharact":1858,"ĠPIG":1859,"Ġhi":1860,"Ġthanks":1861,"Ġaway":1862,"ries":1863,"ĠOn":1864,"ov":1865,"Ġnomin":1866,"you":1867,"Ġdou":1868,"ĠWhy":1869,"Ġsystem":1870,"ĠAll":1871,"Ġstarted":1872,"error":1873,"AB":1874,"AM":1875,"ĠSp":1876,"24":1877,"Wikipedia":1878,"Ġ20":1879,"rodu":1880,"Ġdem":1881,"jpg":1882,"Ġcommon":1883,"Ġserious":1884,"FUCKFUCK":1885,"Ġgetting":1886,"ĠAf":1887,"nnnnnnnn":1888,"Ġ2005":1889,"ton":1890,"Ġchanged":1891,"wikipedia":1892,"ĠChrist":1893,"ĠMay":1894,"Ġhistor":1895,"ĠQ":1896,"ĠAny":1897,"ĠIN":1898,"ĠBrit":1899,"Ġshit":1900,"Ġline":1901,"ĠSHIT":1902,"Ġorgan":1903,"Ġeng":1904,"tytytyty":1905,"{{":1906,"upid":1907,"Ġstay":1908,"ilar":1909,"Ġprocess":1910,"ising":1911,"Ġnames":1912,"Ġopen":1913,"ĠTo":1914,"Ġ10":1915,"par":1916,"Ġrelevant":1917,"Ġsl":1918,"ird":1919,"col":1920,"Ġrespect":1921,"ĠMar":1922,"Ġinterested":1923,"cu":1924,"gle":1925,"Ġir":1926,"Ġsentence":1927,"Ch":1928,"reed":1929,"Ġfal":1930,"ĠGerm":1931,"Ġâ":1932,"ivil":1933,"Ġclaims":1934,"Why":1935,"ms":1936,"ĠTO":1937,"Ġneutral":1938,"Ġmist":1939,"UN":1940,"ior":1941,"ĠNot":1942,"ended":1943,"Ġable":1944,"Ġdisag":1945,"RAPC":1946,"RAPCRAPC":1947,"Ġnotic":1948,"âĢĿ":1949,"resent":1950,"Ġloc":1951,"Ġsort":1952,"eed":1953,"fer":1954,"Ġcompl":1955,"Ġappear":1956,"ored":1957,"pecially":1958,"Ġcent":1959,"Ġfull":1960,"Ġremoving":1961,"200":1962,"ived":1963,"Ġprevious":1964,"Ġschool":1965,"Ġmonth":1966,"ron":1967,"Ġitself":1968,"most":1969,"wiki":1970,"Ġpri":1971,"uppet":1972,"Ġsorry":1973,"Ġincluding":1974,"Ġhum":1975,"agraph":1976,"uro":1977,"ush":1978,"ST":1979,"Ġbu":1980,"oid":1981,"Ġsock":1982,"ization":1983,"Ġstuff":1984,"oss":1985,"ĠJust":1986,"Ġtaken":1987,"arl":1988,"Ġbot":1989,"Ġsummary":1990,"Ġlove":1991,"Not":1992,"ference":1993,"Ġimprove":1994,"Ġrun":1995,"Ġstupid":1996,"Ġqual":1997,"fully":1998,"sert":1999,"ator":2000,"Ġlooking":2001,"Ġhowever":2002,"Ġappears":2003,"Ġband":2004,"back":2005,"ode":2006,"IDS":2007,"Ġwanted":2008,"Ġpolicies":2009,"ĠAmerican":2010,"Ġparagraph":2011,"Ġpat":2012,"Ġattacks":2013,"ases":2014,"ban":2015,"ration":2016,"Ġwatch":2017,"iment":2018,"velop":2019,"ĠComm":2020,"ti":2021,"sel":2022,"Ġfaith":2023,"Ġwrote":2024,"Ġlater":2025,"Ġorder":2026,"ield":2027,"ĠLe":2028,"iving":2029,"lict":2030,"POV":2031,"Ġdeal":2032,"Ġquot":2033,"Ġposition":2034,"ohn":2035,"23":2036,"uly":2037,"roll":2038,"onse":2039,"chn":2040,"Ġident":2041,"Ġsearch":2042,"Ġnext":2043,"uture":2044,"Ġrecent":2045,"amm":2046,"Ġdeb":2047,"Ġcountry":2048,"Ġbehav":2049,"That":2050,"Ġocc":2051,"bit":2052,"Ġcurrently":2053,"uk":2054,"Ġprotect":2055,"ILL":2056,"used":2057,"ross":2058,"Ġregarding":2059,"Ġmed":2060,"Ġ2006":2061,"iber":2062,"ury":2063,"Ġinvolved":2064,"Ġest":2065,"idd":2066,"gain":2067,"Ġtra":2068,"Ġrecord":2069,"Ġsingle":2070,"ĠCon":2071,"anned":2072,"hel":2073,"andbox":2074,"ait":2075,"amb":2076,"Ġaccur":2077,"So":2078,"Ġdont":2079,"Ġrelated":2080,"Ġwithin":2081,"Ġfile":2082,"Ġra":2083,"Ġwriting":2084,"Ġwarning":2085,"Ġpass":2086,"usic":2087,"Ġcritic":2088,"Ġcame":2089,"leg":2090,"rad":2091,"Ġcertainly":2092,"Ġcommunity":2093,"ification":2094,"Ġstates":2095,"oogle":2096,"AY":2097,"Do":2098,"Ġaddition":2099,"Ġsimilar":2100,"wise":2101,"Hey":2102,"Ġclass":2103,"Ġfalse":2104,"Ġduring":2105,"Ġpretty":2106,"ctions":2107,"vent":2108,"Ġ...":2109,"ternal":2110,"Ġfail":2111,"Ġgovern":2112,"page":2113,"Ġmiss":2114,"oman":2115,"Ġnotability":2116,"Ġfr":2117,"und":2118,"Ġrepe":2119,"Ġprof":2120,"Ġcompletely":2121,"Ġedited":2122,"Ġbitch":2123,"ĠChe":2124,"Ġ=":2125,"Ġgay":2126,"Ġrespond":2127,"Ġofficial":2128,"ours":2129,"Ġmaybe":2130,"lack":2131,"ĠâĢľ":2132,"ĠGo":2133,"Ġfucking":2134,"co":2135,"dd":2136,"Ġago":2137,"Ġeveryone":2138,"Ġself":2139,"Ġdescrip":2140,"ĠAt":2141,"oint":2142,"Ġside":2143,"Ġabs":2144,"ĠNor":2145,"ĠBlock":2146,"Ġguess":2147,"Ġdisagree":2148,"joy":2149,"atever":2150,"Ġtruth":2151,"Ġdep":2152,"Ġexplan":2153,"omat":2154,"ulation":2155,"son":2156,"Ġwasn":2157,"ilit":2158,"Ġspeak":2159,"unt":2160,"Ġchild":2161,"Ġplaced":2162,"Ġentry":2163,"ai":2164,"Ġpower":2165,"Ġequ":2166,"umb":2167,"Ġasked":2168,"Ġposted":2169,"Ġtot":2170,"Ġdevelop":2171,"Ġuseful":2172,"25":2173,"Ġnecess":2174,"olic":2175,"acy":2176,"Ġrepla":2177,"DI":2178,"olution":2179,"Ġsignific":2180,"Ġfuture":2181,"rain":2182,"log":2183,"Ġdiff":2184,"Wh":2185,"ĠâĢĵ":2186,"cience":2187,"ĠWikiped":2188,"Ġdel":2189,"ĠSUCK":2190,"ants":2191,"ending":2192,"IP":2193,"ĠImage":2194,"Ġnice":2195,"add":2196,"ission":2197,"ĠPer":2198,"Ġsound":2199,"ortun":2200,"Ġparticular":2201,"Ġwonder":2202,"Ġpen":2203,"ublic":2204,"Ġtyp":2205,"iar":2206,"ĠSee":2207,"Ġtalking":2208,"Ġusername":2209,"Ġbelow":2210,"Ġgame":2211,"ĠSome":2212,"Ġ24":2213,"ially":2214,"Ġtoday":2215,"IK":2216,"rupt":2217,"Ġargument":2218,"more":2219,"rel":2220,"Ġthreat":2221,"selves":2222,"Ġrelig":2223,"Ġknowledge":2224,"AC":2225,"ĠAIDS":2226,"Ġespecially":2227,"Ġperhaps":2228,"Ġarch":2229,"ley":2230,"ains":2231,"Ġresponse":2232,"Ġlarge":2233,"Ġnoticed":2234,"ling":2235,"Ġnig":2236,"igure":2237,"Ġdue":2238,"ural":2239,"IC":2240,"igned":2241,"Ġworking":2242,"Ġeverything":2243,"Ġreasons":2244,"Ġsmall":2245,"Ġ199":2246,"Ġnational":2247,"Ġnews":2248,"ient":2249,"Ġcover":2250,"Ġpublished":2251,"get":2252,"inc":2253,"Ġquote":2254,"Ġweek":2255,"ĠAM":2256,"Ġcontact":2257,"ively":2258,"ATE":2259,"Ġrule":2260,"Ġexactly":2261,"Ġappro":2262,"Ġcult":2263,"Ġuploaded":2264,"utes":2265,"ography":2266,"Ġboy":2267,"Ġlack":2268,"Ġlooks":2269,"amed":2270,"Ġappreciate":2271,"color":2272,"OM":2273,"My":2274,"Ġhold":2275,"Ġalong":2276,"val":2277,"ĠALL":2278,"Ġsoon":2279,"Ġpurp":2280,"Ġ/":2281,"len":2282,"inally":2283,"Ġupd":2284,"Ġreading":2285,"cont":2286,"Ġexperi":2287,"Ġcontribs":2288,"Ġenjoy":2289,"Ġeffect":2290,"ering":2291,"ouse":2292,"ivid":2293,"Ġadministrator":2294,"Ġrev":2295,"Ġstated":2296,"quest":2297,"Project":2298,"Ġpolitical":2299,"He":2300,"Ġworth":2301,"Ġguy":2302,"Ġtried":2303,"For":2304,"Ġdocu":2305,"ata":2306,"Ġmet":2307,"head":2308,"Ġintern":2309,"Ġredirect":2310,"Ġvalid":2311,"itions":2312,"por":2313,"Ġcou":2314,"Ġfigure":2315,"VE":2316,"Well":2317,"rael":2318,"Ġtags":2319,"Ġsk":2320,"Ġfive":2321,"ĠSc":2322,"ĠReg":2323,"row":2324,"Ġmult":2325,"Ġoften":2326,"Ġ15":2327,"Ġmeaning":2328,"cur":2329,"Ġpie":2330,"Ġbecome":2331,"Ġhaven":2332,"201":2333,"pro":2334,"urch":2335,"Ġund":2336,"Ġ2007":2337,"Ġunf":2338,"Ġaware":2339,"urope":2340,"OS":2341,"ots":2342,"Ġreverting":2343,"Ġprovided":2344,"ired":2345,"lim":2346,"Ġart":2347,"Ġproblems":2348,"bt":2349,"ats":2350,"Ġemail":2351,"ĠWhen":2352,"Ġcontrovers":2353,"Ġsandbox":2354,"Ġcar":2355,"Ġlic":2356,"Ġbackground":2357,"Ġconfir":2358,"Ġneeded":2359,"Ġ17":2360,"Ġvandalize":2361,"Ġturn":2362,"Ġbus":2363,"ĠNow":2364,"Ġdecide":2365,"htm":2366,"Ġremember":2367,"ris":2368,"iness":2369,"ane":2370,"lying":2371,"ĠRep":2372,"ĠAgain":2373,"Ġstrong":2374,"like":2375,"ital":2376,"ĠAND":2377,"iversity":2378,"ner":2379,"ĠUnited":2380,"Ġdispute":2381,"Ġjob":2382,"iction":2383,"Ġ2008":2384,"ION":2385,"Ġtook":2386,"Ġ?":2387,"ĠWH":2388,"ĠHere":2389,"order":2390,"Ġsepar":2391,"FA":2392,"ery":2393,"Ġpa":2394,"Ġunblock":2395,"which":2396,"Ġautomat":2397,"ET":2398,"Ġbre":2399,"Ġbeg":2400,"gether":2401,"EW":2402,"eral":2403,"AHAHAHAH":2404,"Ġterms":2405,"Ġve":2406,"ĠÂ":2407,"Ġtaking":2408,"iple":2409,"Image":2410,"Ġbooks":2411,"Ġbanned":2412,"tical":2413,"Ġadm":2414,"Ġhappy":2415,"Ġalmost":2416,"Ġpoints":2417,"che":2418,"Ġanti":2419,"Ġhon":2420,"âĢĶ":2421,"ogn":2422,"Ġparticip":2423,"Ġobviously":2424,"Ġexplanation":2425,"Man":2426,"Ġmod":2427,"Ġdescription":2428,"ipple":2429,"Ġtold":2430,"comm":2431,"urk":2432,"Ġexperiment":2433,"Ġbro":2434,"Ġok":2435,"Ġdeleting":2436,"Ġmemb":2437,"Ġcontext":2438,"IA":2439,"Ġcharacter":2440,":#":2441,"ticles":2442,"Ġkill":2443,"Ġstatus":2444,"wards":2445,"!!!!!!!!!!!!!!!!!!!!!!!!!!!!!!!!":2446,"ividual":2447,"ĠJun":2448,"Ġshows":2449,"alf":2450,"ĠSer":2451,"epend":2452,"Ġavoid":2453,"lam":2454,"using":2455,"Ġconflict":2456,"ĠJohn":2457,"edic":2458,"Ġrecently":2459,"Ġ{{":2460,"Ġvis":2461,"ober":2462,"itive":2463,"reme":2464,"put":2465,"Ġscient":2466,"Ġaccording":2467,"irc":2468,"Ġlikely":2469,"Ġsaw":2470,"Ġcited":2471,"TH":2472,"Ġactual":2473,"ney":2474,"Ġdefinition":2475,"Ġgovernment":2476,"Ġmembers":2477,"On":2478,"Ġadmins":2479,"ĠFuck":2480,"Ġ#":2481,"orld":2482,"Ġla":2483,"imate":2484,"Ġstory":2485,"Ġunless":2486,"Ġthank":2487,"Ġfilm":2488,"~~~~":2489,"ĠASS":2490,"ny":2491,"Ġfine":2492,"Ġ14":2493,"Ġviews":2494,"Ġallowed":2495,"ball":2496,"BS":2497,"see":2498,"Ġ12":2499,"ump":2500,"ream":2501,"Ġeffort":2502,"OW":2503,"go":2504,"Ġpract":2505,"ffic":2506,"que":2507,"Ġcompany":2508,"Ġsites":2509,"ourn":2510,"Ġthemselves":2511,"Ġones":2512,"Ġwhatever":2513,"ined":2514,"Ġtild":2515,"Ġwent":2516,"orial":2517,"ĠWar":2518,"ĠPr":2519,"ensive":2520,"Ġprim":2521,"Ġgenerally":2522,"Ġautomatically":2523,"nect":2524,"Yes":2525,"iod":2526,"Ġintrodu":2527,"Ġrepresent":2528,"ESS":2529,"na":2530,"ama":2531,"ĠPh":2532,"gy":2533,"ĠBritish":2534,"lu":2535,"ĠGod":2536,"Ġquick":2537,"Ġ2004":2538,"Ġhours":2539,"omen":2540,"Ġclose":2541,"fect":2542,"Ġexcept":2543,"rap":2544,"TW":2545,"Ġpromot":2546,"ĠNe":2547,"Ġevent":2548,"Ġapolog":2549,"Ġalone":2550,"Ġworks":2551,"Ġtransl":2552,"Ġtildes":2553,"eah":2554,"rew":2555,"idth":2556,"ĠMr":2557,"mp":2558,"Ġban":2559,"ĠGree":2560,"Ġattention":2561,"Ġtype":2562,"Ġid":2563,"Ġrece":2564,"Ġactions":2565,"Ġvarious":2566,"ĠTr":2567,"ĠJews":2568,"acos":2569,"RECT":2570,"ales":2571,"Ġeth":2572,"Ġexpect":2573,"Ġaren":2574,"ibly":2575,"Ġmill":2576,"We":2577,"Ġep":2578,"Ġsimple":2579,"Ġcitation":2580,"Ġlive":2581,"ĠYOUR":2582,"Ġavail":2583,"sy":2584,"Ġmark":2585,"Ġden":2586,"istory":2587,"Ġ16":2588,"Ġmoved":2589,"Ġindividual":2590,"Com":2591,"puppet":2592,"urd":2593,"onsense":2594,"\"::":2595,"Ġsus":2596,"________":2597,"Ġgoes":2598,"Ġsubst":2599,"ites":2600,"lling":2601,"oph":2602,"ĠCl":2603,"ularly":2604,"Ġcontributing":2605,"hys":2606,"Ġcap":2607,"Be":2608,"eal":2609,"fuck":2610,"side":2611,"ĠHA":2612,"ĠOne":2613,"Ġcomplain":2614,"lent":2615,"Ġarea":2616,"ĠCol":2617,"Ġpenis":2618,"Ġmusic":2619,"aged":2620,"adem":2621,"ideo":2622,"izing":2623,"Ġguys":2624,"nder":2625,"Ġreply":2626,"TAB":2627,"UP":2628,"Ġcitations":2629,"itted":2630,"Ġter":2631,"Ġdr":2632,"Ġhappened":2633,"iver":2634,"Ġfav":2635,"Ġtechn":2636,"Ġhuman":2637,"Ġcriticism":2638,"reg":2639,"raw":2640,"Ġcreating":2641,"ĠST":2642,"Ġsucks":2643,"af":2644,"oke":2645,"iter":2646,"Ġunc":2647,"lex":2648,"Ġhy":2649,"Ġdeath":2650,"Ġhelpful":2651,"top":2652,"Ġsourced":2653,"EST":2654,"Un":2655,"ĠSch":2656,"Ġpres":2657,"just":2658,"reen":2659,"Ġsections":2660,"OP":2661,"Ġ13":2662,"ences":2663,"Ġbo":2664,"Ġcategory":2665,"Ġfeature":2666,"Just":2667,"Ġtogether":2668,"unch":2669,"iation":2670,"Ġanyway":2671,"Ġmeant":2672,"ĠRuss":2673,"ells":2674,"Ġminor":2675,"ĠX":2676,"Ġaction":2677,"Ġann":2678,"Ġmoder":2679,"Ġinteresting":2680,");":2681,"Ġlonger":2682,"Se":2683,"Ġjud":2684,"Ġhit":2685,"ĠMan":2686,"Ġlevel":2687,"ĠStates":2688,",\"\"":2689,"Ġbias":2690,"Ġwait":2691,"REDI":2692,"thod":2693,"ĠPe":2694,"Ġbelong":2695,"Ġpers":2696,"Ġhom":2697,"]]":2698,"Ġconv":2699,"olute":2700,"Ġwouldn":2701,"shit":2702,"Ġestab":2703,"Ġavailable":2704,"REDIRECT":2705,"ĠJan":2706,"''''''":2707,"Ġaccurate":2708,"Ġaff":2709,"iab":2710,"Ġdoubt":2711,"De":2712,"Sh":2713,"Also":2714,"Ġindicate":2715,"Ġfight":2716,"Ġmere":2717,"ĠPol":2718,"rab":2719,"Ġperiod":2720,"arily":2721,"ĠNipple":2722,"Ġtherefore":2723,"Ġsignificant":2724,"ĠBy":2725,"ĠEx":2726,"Ġhimself":2727,"pret":2728,"ĠIT":2729,"Ġcomes":2730,"Ġaccepted":2731,"ĠFAT":2732,"Ġsupposed":2733,"ĠGerman":2734,"ĠFAG":2735,"Ġverif":2736,"Ġnecessary":2737,"bum":2738,"Ġrecogn":2739,"ugust":2740,"Ġration":2741,"Ġclean":2742,"Ġclick":2743,"bers":2744,"Qu":2745,"what":2746,"Ġproof":2747,"itely":2748,"ibility":2749,"Ġmonths":2750,"Ġcite":2751,"ĠCont":2752,"Ġpiece":2753,"Ġill":2754,"Ġlim":2755,"Ġmeet":2756,"Ġclar":2757,"Ġteam":2758,"work":2759,"Ġpill":2760,"Ġmom":2761,"Ġmass":2762,"vice":2763,"Ġworked":2764,"Ġmar":2765,"Ġlab":2766,"ĠEurope":2767,"Ġdocument":2768,"ĠIsrael":2769,"oring":2770,"Ġhome":2771,"ĠDon":2772,"aving":2773,"ĠRE":2774,"port":2775,"rary":2776,"apan":2777,"Ġdebate":2778,"Ġopinions":2779,"ĠCheers":2780,"Ġnonsense":2781,"ĠNPOV":2782,"Ġbox":2783,"Ġperm":2784,"Ġindeed":2785,"onym":2786,"Ġdetails":2787,"uary":2788,"Wiki":2789,"ted":2790,"Ġgl":2791,"Ġfamily":2792,"au":2793,"Ġmot":2794,"Ġey":2795,"over":2796,"iff":2797,"ructive":2798,"50":2799,"Ġsong":2800,"ĠBr":2801,"ĠGe":2802,"ĠARE":2803,"Ġcred":2804,"Ġtheory":2805,"Ġalthough":2806,"tyle":2807,"Ġproposed":2808,"Ġviolation":2809,"Ġthird":2810,"Ġconcl":2811,"Ġcontest":2812,"lection":2813,"Ġment":2814,"Ġlight":2815,"Ġindepend":2816,"ters":2817,"Ġben":2818,"Ġstatements":2819,"SEL":2820,"Ã©":2821,"ev":2822,"Ġfoot":2823,"Ġparty":2824,"Ġinsult":2825,"Ġed":2826,"Ġtagged":2827,"Ġsituation":2828,"Ex":2829,"cent":2830,"ech":2831,"Ġbring":2832,"Ġseparate":2833,"aul":2834,"war":2835,"Ġyes":2836,"arian":2837,"ĠHATE":2838,"Ġupon":2839,"Ġamong":2840,"Ġenc":2841,"oice":2842,"Ġdisrupt":2843,"arently":2844,"IM":2845,"nic":2846,"itch":2847,"ĠJew":2848,"oot":2849,"Ġrid":2850,"ency":2851,"ĠGu":2852,"Ġirre":2853,"ĠJEW":2854,"Ġexpress":2855,"no":2856,"px":2857,"sc":2858,"Ġcivil":2859,"ĠShe":2860,"Ġrac":2861,"Ġreach":2862,"Ġ198":2863,"Ġstandard":2864,"ĠAb":2865,"Ġincorrect":2866,"Ġtroll":2867,"this":2868,"amas":2869,"ĠStyle":2870,"ĠBUT":2871,"Ġfaggots":2872,"Ġrepeated":2873,"star":2874,"UNT":2875,"Ġfield":2876,"ĠJuly":2877,"**":2878,"Ġliving":2879,"ading":2880,"ilitary":2881,"Ġbehavior":2882,".,":2883,"Ġtable":2884,"Ġconnect":2885,"Ġbiased":2886,"AS":2887,"aster":2888,"Ġ11":2889,"oney":2890,"Ġotherwise":2891,"Ġdifference":2892,"Ġexplaining":2893,"Ġcause":2894,"\"\"?":2895,"raft":2896,"Ġ100":2897,"Ġschol":2898,"Ġabsolute":2899,"Ġperfect":2900,"ĠChristian":2901,"ison":2902,"Ġpillars":2903,"ĠCUNT":2904,"Ġproduce":2905,"100":2906,"Ġheard":2907,"IL":2908,"Ġ(~~~~":2909,"Ġrationale":2910,"ullshit":2911,"Ġcouple":2912,"Ġdest":2913,"Ġprogr":2914,"Ġasking":2915,"Ġcontinu":2916,"times":2917,"Ġfore":2918,"ĠAust":2919,"Ġjo":2920,"Ġremain":2921,"Ġ2009":2922,"Ġexisting":2923,"how":2924,"Ġcity":2925,"ĠMa":2926,"ange":2927,"ĠGr":2928,"Ġmessages":2929,"Can":2930,"utorial":2931,"Ġpurpose":2932,"Ġdata":2933,"uslim":2934,"ĠLI":2935,"gress":2936,"arth":2937,"Ġearl":2938,"Oh":2939,"Ġsw":2940,"Ġport":2941,"Ġshouldn":2942,"Ġaccess":2943,"Ġmag":2944,"unk":2945,"Ġ2010":2946,"ĠBL":2947,"Ġidi":2948,"ĠWik":2949,"Ġdeser":2950,"Ġfreezer":2951,"AD":2952,"Ġdam":2953,"Ġlat":2954,"Ġsuc":2955,"ĠMe":2956,"FUCKFUCKFUCKFUCK":2957,"new":2958,"Ġcalling":2959,"Ġformat":2960,"To":2961,"yn":2962,"ĠApr":2963,"irl":2964,"ught":2965,"Ġhate":2966,"ĠGet":2967,"Ġbuild":2968,"anda":2969,"nnnnnnnnnnnnnnnn":2970,"Ġgets":2971,"IGG":2972,"Ġprofess":2973,"bal":2974,"alth":2975,"icult":2976,"html":2977,"Ġelect":2978,"ĠAugust":2979,"ĠDON":2980,"ĠLet":2981,"Ġinclusion":2982,"help":2983,"ĠGood":2984,"ferences":2985,"Ġextreme":2986,"Ġprefer":2987,"Ġrights":2988,"tytytytytytytyty":2989,"ster":2990,"ĠFeb":2991,"free":2992,"Ġfin":2993,"ĠWest":2994,"ĠAre":2995,"Ġusually":2996,"Ġlinked":2997,"Ġcomput":2998,"aming":2999,"Ġassume":3000,"Ġpriv":3001,"Ġcases":3002,"Ġlo":3003,"ada":3004,"Ġactiv":3005,"US":3006,"ully":3007,"Ġcontribute":3008,"Ġproduct":3009,"Ġmultiple":3010,"EE":3011,"ĠWikipedian":3012,"ĠSince":3013,"ĠHar":3014,"Ġepis":3015,"Ġdeter":3016,"ĠEn":3017,"Request":3018,"Ġwhite":3019,"Ġadvert":3020,"Ġpoor":3021,"ĠThese":3022,"sk":3023,"Ġtreat":3024,"Ġshall":3025,"67":3026,"men":3027,"Ġfan":3028,"Ġrew":3029,"Ġpress":3030,"Ġdescribed":3031,"FD":3032,"????":3033,"OH":3034,"ani":3035,"aring":3036,"ĠWill":3037,"str":3038,"Ġneg":3039,"Ġcountries":3040,"Cont":3041,"Ġur":3042,"Ġfre":3043,"ambig":3044,"ĠTe":3045,"Ġdecided":3046,"But":3047,"ĠTake":3048,"Ġgave":3049,"ĠAss":3050,"Ġharass":3051,"RAPCRAPCRAPCRAPC":3052,"but":3053,"Ġuses":3054,"ands":3055,"Ġexternal":3056,"Ġblocking":3057,"azi":3058,"Ġsmells":3059,"Ġdirectly":3060,"Ġreturn":3061,"ices":3062,"ĠAm":3063,"Ġvideo":3064,"iding":3065,"els":3066,"rench":3067,"40":3068,"align":3069,"aries":3070,"avid":3071,"Ġphr":3072,"attle":3073,"ague":3074,"ĠOFF":3075,"soci":3076,"Ġthinking":3077,"andalism":3078,"ĠIndia":3079,"30":3080,"Ġhalf":3081,"ĠCo":3082,"ĠON":3083,"Ġrelease":3084,"appropriate":3085,"VER":3086,"\"\"|":3087,"ĠBE":3088,"Ġalbum":3089,"play":3090,"Ġquality":3091,"Ġdifficult":3092,"Fuck":3093,"Welcome":3094,"uted":3095,"ĠCOCK":3096,"ĠDO":3097,"ĠUK":3098,"Ġinvest":3099,"enn":3100,"ourced":3101,"Ġ21":3102,"appy":3103,"spe":3104,"Ġ*":3105,"ones":3106,"Ġanal":3107,"Ġseries":3108,"Ġchanging":3109,"Ġlegal":3110,"ournal":3111,"Ok":3112,"Ġsuck":3113,"ety":3114,"ĠUniversity":3115,"Ġprimary":3116,"ĠNIGG":3117,"Sorry":3118,"ances":3119,"Ġphys":3120,"ential":3121,"Ġconcept":3122,"Ġspecial":3123,"Ġexpand":3124,"27":3125,"Ġmother":3126,"Ġsubm":3127,"Ġconcerns":3128,"Ġearlier":3129,"rest":3130,"Ġscience":3131,"eter":3132,"ĠJapan":3133,"Ġdecision":3134,"Ġpropos":3135,"Some":3136,"Ġcamp":3137,"Ġoper":3138,"ortunately":3139,"Ġmillion":3140,"Don":3141,"ert":3142,"set":3143,"ĠPl":3144,"Ġabuse":3145,"conom":3146,"Ġcoll":3147,"Ġhistorical":3148,"Ġreplace":3149,"ination":3150,"rem":3151,"ĠWorld":3152,"ĠEven":3153,"Ġreaders":3154,"Ġspecifically":3155,"Ġirrelevant":3156,"Ġhu":3157,"Ġspace":3158,"inning":3159,"Ġerror":3160,"ung":3161,"Ġamount":3162,"ption":3163,"Ġcontrol":3164,"ĠPerhaps":3165,"ming":3166,"ĠSUP":3167,"ĠKing":3168,"Ġinterpret":3169,"ma":3170,"Ġer":3171,"ald":3172,"ister":3173,"Ġculture":3174,"Ġterror":3175,"board":3176,"Ġhonest":3177,"ĠFA":3178,"Ġconsist":3179,"rict":3180,"Ġface":3181,"ceding":3182,"atic":3183,"ĠGAY":3184,"Ġmov":3185,"ĠDr":3186,"thern":3187,"cons":3188,"Ġdiscussed":3189,"Ġmistake":3190,"ped":3191,"Ġcens":3192,"ished":3193,"ITCH":3194,"medi":3195,"cember":3196,"Ġposts":3197,"Ġrespons":3198,"Ġearly":3199,"Ġprove":3200,"Ġfamil":3201,"Ġcoming":3202,"Ġarguments":3203,"Manual":3204,"Ġmajority":3205,"Ġtakes":3206,"orm":3207,"ource":3208,"ĠOb":3209,"====":3210,"sing":3211,"ĠWIK":3212,"iles":3213,"edy":3214,"Ġcateg":3215,"Ġgiving":3216,"iability":3217,"Ass":3218,"Ġpersonally":3219,"Ġdisruptive":3220,"list":3221,"oose":3222,"ĠDis":3223,"Ġcreation":3224,"Ġprogram":3225,"ke":3226,"iam":3227,"letion":3228,"ĠOf":3229,"iddle":3230,"Help":3231,"ĠCA":3232,"Ġcontain":3233,"Ġwants":3234,"comp":3235,"Ġnumbers":3236,"RR":3237,"ta":3238,"Ġhell":3239,"Ġacceptable":3240,"Ġentirely":3241,"Ġnigger":3242,"ha":3243,"lege":3244,"Ġstandards":3245,"Ġmerely":3246,"itution":3247,"Ġbast":3248,"Ġcirc":3249,"ĠBITCH":3250,"Ġparticularly":3251,"ĠMaybe":3252,"ĠRepublic":3253,"dom":3254,"reet":3255,"rank":3256,"ĠIslam":3257,"Ġ====":3258,"Ġseriously":3259,"Ġtotally":3260,"ouble":3261,"Ġtowards":3262,"ĠTurk":3263,"ĠHis":3264,"ological":3265,"Ad":3266,"Ġthus":3267,"Ġbenef":3268,"Ġsat":3269,"Ġborder":3270,"Ġassoci":3271,"Ġunsigned":3272,"Ġmodern":3273,"ĠNIGGER":3274,"do":3275,"light":3276,"ĠMarch":3277,"ulous":3278,"Ġvote":3279,"CKS":3280,"overed":3281,"pite":3282,"Ġfat":3283,"Ġrele":3284,"ko":3285,"empl":3286,"Ġplan":3287,"Ġ30":3288,"Ġabsolutely":3289,"Ġgives":3290,"Ġinternet":3291,"Ġwik":3292,"ask":3293,"Ġonline":3294,"Ġsocial":3295,"ĠBEST":3296,"Ġoutside":3297,"Ġreader":3298,"Ġemp":3299,"ples":3300,"Ġnamed":3301,"ider":3302,"///":3303,"Ġpictures":3304,"ĠCAN":3305,"Ġsuper":3306,"Ġcool":3307,"Ġphoto":3308,"Ġvot":3309,"ĠOct":3310,"Ġfocus":3311,"Ġreflect":3312,"Ġlegit":3313,"ĠAfric":3314,"gue":3315,"Ġmember":3316,"99":3317,"ĠDid":3318,"Ġchance":3319,"/////":3320,"Ġlooked":3321,"ĠArticle":3322,"Ġunderstanding":3323,"loy":3324,"Ġ2012":3325,"28":3326,"BL":3327,"Ġinappropriate":3328,"Ġsolid":3329,"Ġbusiness":3330,"Ġmoment":3331,"Ġdick":3332,"Ġstub":3333,"Ġacadem":3334,"itting":3335,"Ġexperience":3336,"II":3337,"ĠSH":3338,"Ġess":3339,"Ġscientific":3340,"ĠBUTT":3341,"dis":3342,"ĠBl":3343,"Ġposting":3344,"Ġputting":3345,"ĠAustral":3346,"Ġwilling":3347,"onymous":3348,"ĠThen":3349,"ĠIntern":3350,"Ġgroups":3351,"ĠSUPER":3352,"mail":3353,"illy":3354,"range":3355,"Ġpopulation":3356,"Ġrequesting":3357,"60":3358,"BU":3359,"alle":3360,"Ġdead":3361,"antly":3362,"Ġevents":3363,"Ġfriends":3364,"77":3365,"DY":3366,"Ġblack":3367,"lement":3368,"Ġreported":3369,"Ġoppos":3370,"Ġverifiable":3371,"ĠJewish":3372,"Ġaltern":3373,"ĠRf":3374,"ĠJanuary":3375,"WP":3376,"bs":3377,"enced":3378,"ĠSouth":3379,"Ġborn":3380,"Ġcor":3381,"ĠNational":3382,"ptember":3383,"arnstar":3384,"Ġproperly":3385,"ĠQu":3386,"ning":3387,"ĠIran":3388,"Ġlost":3389,"ĠTV":3390,"Ġadvice":3391,"IPED":3392,"oud":3393,"ana":3394,"asure":3395,"ford":3396,"Ġprevent":3397,"Ġinflu":3398,"29":3399,"sed":3400,"Ġnone":3401,"Ġinsert":3402,"Ġvol":3403,"ĠEd":3404,"SECKS":3405,"Ġpay":3406,"esus":3407,"Ġformer":3408,"Ġshown":3409,"Ġnorm":3410,"hole":3411,"ĠBUTTSECKS":3412,"Ġimmedi":3413,"ngth":3414,"ias":3415,"Ġaf":3416,"ĠME":3417,"Ġbehind":3418,"Ġ(~~~~);":3419,"|-":3420,"Ġgone":3421,"Ġ23":3422,"Ġsurpr":3423,"ators":3424,"ovember":3425,"ship":3426,"Ġexamples":3427,"Ġhighly":3428,"Ġstudy":3429,"Ġsockpuppet":3430,"ĠJune":3431,"\"==":3432,"irth":3433,"udd":3434,"Ġdemon":3435,"?)":3436,"Ġ;":3437,"Ġz":3438,"Ġrad":3439,"'.":3440,"See":3441,"arty":3442,"Ġbreak":3443,"ica":3444,"Ġappl":3445,"tom":3446,"{|":3447,"Ġ22":3448,"Ġbastard":3449,"Ġknows":3450,"45":3451,"Ġmen":3452,"ographies":3453,"Ġpopular":3454,"Ġeduc":3455,"Ġregards":3456,"ĠWhile":3457,"):":3458,"SHIT":3459,"ham":3460,"Ġ!":3461,"Ġstep":3462,"Ġadministrators":3463,"Ġethnic":3464,"ium":3465,"Ġfill":3466,"ĠWith":3467,"Ġarbit":3468,"Ġchildren":3469,"ĠGen":3470,"roy":3471,"Ġassert":3472,"Ġsubstant":3473,"Ġnoted":3474,"rite":3475,"Ġcop":3476,"Ġlists":3477,"Ġclub":3478,"ĠÂ·":3479,"LY":3480,"Ġtool":3481,"Ġforward":3482,"andid":3483,"Ġconfirm":3484,"know":3485,"Ġ''''''":3486,"Ġpot":3487,"Ġmatch":3488,"Ġinvestig":3489,"Ġcut":3490,"Ġpoop":3491,"rish":3492,"ĠCar":3493,"ĠRes":3494,"Ġhey":3495,"cedon":3496,"ONG":3497,"Ġignore":3498,"Ġokay":3499,"Ġindependent":3500,"CC":3501,"ĠArab":3502,"ester":3503,"ĠYork":3504,"ems":3505,"Ġdiscussions":3506,"Ġpropag":3507,"Ġeasily":3508,"TWAT":3509,"Quest":3510,"Spe":3511,"ĠList":3512,"Ġorganization":3513,"ĠGreek":3514,"ique":3515,"Ġrecomm":3516,"80":3517,"Ġair":3518,"Ġinit":3519,"Ġreasonable":3520,"duct":3521,"ĠAdmin":3522,"oe":3523,"Ġacross":3524,"ellig":3525,"Ġblank":3526,"AW":3527,"ining":3528,"Ġways":3529,"'''":3530,"Ġblog":3531,"Ġmine":3532,"andom":3533,"ĠGoogle":3534,"Ġ25":3535,"ĠFeel":3536,"IPEDIA":3537,"fe":3538,"under":3539,"Ġ2011":3540,"Here":3541,"Ġdog":3542,"ĠMc":3543,"Reg":3544,"Ġignor":3545,"Ġsuspect":3546,"Ġbody":3547,"arding":3548,"ERS":3549,"ĠAmerica":3550,"BC":3551,"Ġhes":3552,"asc":3553,"asing":3554,"Ġimpl":3555,"ĠUN":3556,"Ġresol":3557,"???":3558,"Ġbecom":3559,"ruary":3560,"Ġapproach":3561,"ĠBar":3562,"Ġmethod":3563,"All":3564,"erous":3565,"Ġmilitary":3566,"Ġmoney":3567,"ried":3568,"ĠDecember":3569,"Ġtre":3570,"isf":3571,"that":3572,"Ġeasy":3573,"Ġcunt":3574,"ament":3575,"Ġ197":3576,"Ġbelief":3577,"Ġpublish":3578,"Ġbasis":3579,"Ġridic":3580,"ĠApril":3581,"ouch":3582,"ality":3583,"Ġhuge":3584,"action":3585,"aign":3586,"well":3587,"Ġcontribution":3588,"atholic":3589,"Ġahead":3590,"Ġbec":3591,"AND":3592,"ĠIM":3593,"Ġforce":3594,"Ġperform":3595,"Ġreferring":3596,"style":3597,"ĠUP":3598,"rid":3599,"ĠWell":3600,"Ġargue":3601,"ĠWho":3602,"gen":3603,"hi":3604,"Ġfinal":3605,"Ġnature":3606,"Ġliter":3607,"ĠSy":3608,"Ġspeedily":3609,"Ġfixed":3610,"Ġmissing":3611,"26":3612,"Ġwide":3613,"ĠIm":3614,"Ġliber":3615,"Ġwarring":3616,"Ġaccounts":3617,"Ġpaper":3618,"book":3619,"with":3620,"receding":3621,"Ġluck":3622,"Ġsometimes":3623,"ume":3624,"Ġapparently":3625,"Ġexpert":3626,"Ġdefinitely":3627,"Ġcomputer":3628,"ĠAfter":3629,"quently":3630,"ĠEl":3631,"astered":3632,"Ġideas":3633,"ĠNorth":3634,"SH":3635,"Ġdri":3636,"ĠAct":3637,"ources":3638,"Ġorigin":3639,"Ġrequired":3640,"Ġfavor":3641,"orth":3642,"ellow":3643,"Ġcourt":3644,"Ġresults":3645,"Ġfall":3646,"ĠCH":3647,"elt":3648,"Ġground":3649,"Ġnomination":3650,"Ġencour":3651,"CE":3652,"ware":3653,"iting":3654,"Ġho":3655,"Ġgames":3656,"Ġselect":3657,"ops":3658,"ĠRoman":3659,"Ġvalue":3660,"Ġlicense":3661,"ĠHave":3662,"inks":3663,"ĠWikiProject":3664,"Ġflag":3665,"Ġsuccess":3666,"cer":3667,"Ġbother":3668,"tick":3669,"ĠSw":3670,"ifies":3671,"ĠCent":3672,"lav":3673,"Ġteach":3674,"Good":3675,"ĠSorry":3676,"Ġmeets":3677,"AME":3678,"Ġcentury":3679,"sych":3680,"?!":3681,"net":3682,"ĠPR":3683,"ilos":3684,"rief":3685,"ĠChurch":3686,"Ġsupported":3687,"New":3688,"ĠSm":3689,"Ġintention":3690,"Ġrelations":3691,"Ġidiot":3692,"OB":3693,"Ġdescribe":3694,"ĠAnyway":3695,"Ġdev":3696,"ĠCount":3697,"Ġhear":3698,"Ġplaces":3699,"iour":3700,"ĠSpe":3701,"ĠPage":3702,"Ġneither":3703,"serv":3704,"Ġ50":3705,"Ġtemplates":3706,"Ġprior":3707,"ĠÐ":3708,"lear":3709,"lled":3710,"Ġtrouble":3711,"ression":3712,"ugh":3713,"Ġthread":3714,"itude":3715,"ĠMuslim":3716,"Ġreligion":3717,"ĠDONT":3718,"time":3719,"Ġerr":3720,"Ġbar":3721,"Ġdrop":3722,"ĠFUCKING":3723,"Ġfund":3724,"Ġtotal":3725,"List":3726,"Ġwomen":3727,"itle":3728,"Ġfully":3729,"chie":3730,"Ġpossibly":3731,"ĠBecause":3732,"Ġoccur":3733,"Ġpick":3734,"Ġnewsp":3735,"Ġlies":3736,"Ġexplained":3737,"Ġfamiliar":3738,"Where":3739,"eep":3740,"gas":3741,"Ġmap":3742,"hem":3743,"irt":3744,"Ġaccusations":3745,"RS":3746,"ka":3747,"ĠJim":3748,"LLSHIT":3749,"GA":3750,"ĠBullshit":3751,"Ġtrad":3752,"inese":3753,"ructure":3754,"Ġcharacters":3755,"ec":3756,"rant":3757,"ulations":3758,"ciety":3759,"ube":3760,"Ġhesit":3761,"Ġvict":3762,"gest":3763,"Ġrom":3764,"ĠEdit":3765,"Ġmanner":3766,"Ġwarnings":3767,"Ġconcerned":3768,")\"":3769,"pen":3770,"pir":3771,"Ġpain":3772,"Ġhor":3773,"ays":3774,"Ġwording":3775,"Ġtend":3776,"icit":3777,"ERE":3778,"Ġremoval":3779,"Ġsuggestion":3780,"Now":3781,"bor":3782,"Ġwidth":3783,"ceed":3784,"ips":3785,"istan":3786,"ĠOther":3787,"Ġreferenced":3788,"Ġtelling":3789,"ĠAfD":3790,"Ġusage":3791,"ĠNovember":3792,"ĠIndian":3793,"Ġwondering":3794,"isions":3795,"ott":3796,"ĠFrench":3797,"Ġexcl":3798,"Ġweeks":3799,"Ġpresented":3800,"Ġforum":3801,"Ġdiscussing":3802,"Ġlocal":3803,"Ġnegative":3804,"uses":3805,"Ġge":3806,"ĠSim":3807,"Ġweight":3808,"Ġseeing":3809,"Ġdesign":3810,"Ġvertical":3811,"adding":3812,"bar":3813,"Ġcell":3814,"Ġcoun":3815,"ene":3816,"ustr":3817,"Ġanymore":3818,"Ġcontroversial":3819,"BULLSHIT":3820,"Ġlib":3821,"ĠHistory":3822,"Ġshowing":3823,"Ġtests":3824,"When":3825,"SELF":3826,"ze":3827,"Ġcandid":3828,"ening":3829,"Ġda":3830,"FFFA":3831,"Ġrepeatedly":3832,"Ġbal":3833,"Ġled":3834,"Ġinfobox":3835,"Ġbottom":3836,"!)":3837,"Che":3838,"ae":3839,"gar":3840,"oll":3841,"Ġcontributors":3842,"Ġguideline":3843,"reedom":3844,"Ġprinc":3845,"ifying":3846,"Ġbecame":3847,"ael":3848,"Ġsad":3849,"Ġeconom":3850,"Ġnear":3851,"Ġcouldn":3852,"php":3853,"Ġsuggested":3854,"atory":3855,"ĠGO":3856,"Ġracist":3857,"Ġsatisf":3858,"ĠWILL":3859,"ĠCal":3860,"Ġvers":3861,"yond":3862,"Ġce":3863,"ĠHope":3864,"ĠFirst":3865,"Ġprot":3866,"Ġclaimed":3867,"Any":3868,"Ġhitler":3869,"WikiProject":3870,"ps":3871,"Ġlik":3872,"ously":3873,"Ġinterview":3874,"Ġinvolve":3875,"Ġbehaviour":3876,"related":3877,"ĠRegards":3878,"66":3879,"aff":3880,"rr":3881,"anish":3882,"Ġaspect":3883,"ĠHE":3884,"ĠNews":3885,"Ġappreciated":3886,"Ġreligious":3887,"ambiguation":3888,"PS":3889,"Ġstick":3890,"orge":3891,"ids":3892,"ĠBest":3893,"Ġapply":3894,"Ġnominated":3895,"ĠOctober":3896,"Ġridiculous":3897,"21":3898,"Edit":3899,"aa":3900,"cret":3901,"Ġnobody":3902,"IST":3903,"Ġestablished":3904,"gree":3905,"Ġder":3906,"cel":3907,"Ġshare":3908,"rack":3909,"abor":3910,"Ġfactual":3911,"Ġtypes":3912,"omb":3913,"hetic":3914,"Ġtrust":3915,"Ġactive":3916,"Ġkept":3917,"ĠSeptember":3918,"Ġhyp":3919,"emplate":3920,"uh":3921,"ĠInst":3922,"ĠState":3923,"Ġextremely":3924,"rim":3925,"ĠInt":3926,"Ġyours":3927,"Ġbrought":3928,"Ġreceived":3929,"helpme":3930,"Ġmovie":3931,"Ġincre":3932,"Ġuploading":3933,"Ġdiv":3934,"Ġsomewhere":3935,"Ġjournal":3936,"ivility":3937,"aby":3938,"Ġquotes":3939,"Ġbeyond":3940,"ĠJesus":3941,"Ġcapital":3942,"aper":3943,"ĠBOO":3944,"Ġexists":3945,"Ġdespite":3946,"Ġcommunic":3947,"Ġpreviously":3948,"itable":3949,"ened":3950,"rian":3951,"',":3952,"Tutorial":3953,"zy":3954,"Ġage":3955,"ĠBel":3956,"Ġguide":3957,"ĠPeople":3958,"FC":3959,"Ġachie":3960,"ĠAnt":3961,"Ġagend":3962,"Ġmostly":3963,"Ġbasic":3964,"Ġunsourced":3965,"Ġpractice":3966,"ping":3967,"Ġbase":3968,"Ġcast":3969,"ĠTHAT":3970,"Ġinstance":3971,"ĠDoes":3972,"ĠCARE":3973,"Ġland":3974,"class":3975,"Ġimportance":3976,"Ġhesitate":3977,"Ġheil":3978,"Ġphotos":3979,"Ġimmediately":3980,"39":3981,"Ġpure":3982,"Ġvs":3983,"Ġspam":3984,"Ġsounds":3985,"Ġepisode":3986,"Con":3987,"OK":3988,"chan":3989,"ĠMo":3990,"Ġshared":3991,"ĠNote":3992,"ĠED":3993,"Ġrole":3994,"Ġreleased":3995,"gin":3996,"Ġthous":3997,"ĠDavid":3998,"Ġasshole":3999,"Ġlabel":4000,"Ġphrase":4001,"ND":4002,"UU":4003,"erv":4004,"Ġbirth":4005,"anks":4006,"eng":4007,"ĠPres":4008,"ĠNO":4009,"Ġservice":4010,"Ġmovement":4011,"Sm":4012,"mi":4013,"ingu":4014,"Ġsuffic":4015,"Ġjoke":4016,"ĠUnder":4017,"Ġtopics":4018,"Ġreality":4019,"ram":4020,"Ġnat":4021,"urt":4022,"raight":4023,"Ġimag":4024,"Ġwhose":4025,"ĠFebruary":4026,"Ġdemonstr":4027,"Ġtacos":4028,"Ġack":4029,"esides":4030,"Ġrealize":4031,"ĠYOURSELF":4032,"Ġfeatured":4033,"Ġlow":4034,"Ġconstit":4035,"Ġdom":4036,"ĠOh":4037,"odes":4038,"Ġconfused":4039,"IR":4040,"egr":4041,"Ġspl":4042,"anies":4043,"Ġlate":4044,"ĠTacos":4045,"ibal":4046,"Ġmisle":4047,"ĠSchool":4048,"35":4049,"Han":4050,"cise":4051,"inst":4052,"Ġvia":4053,"ersonal":4054,"Ġmaintain":4055,"Ġanim":4056,"usive":4057,"ĠLOS":4058,"3333":4059,"Ġbroad":4060,"Ġcampaign":4061,"ĠWIKIPEDIA":4062,"uman":4063,"ĠKILL":4064,"ĠRussian":4065,"Dear":4066,"aut":4067,"Ġnet":4068,"ĠPar":4069,"Ġexc":4070,"Ġincludes":4071,"Ġclaiming":4072,"Ġblat":4073,"Ġmerge":4074,"ĠMacedon":4075,"Ġadvertising":4076,"Ġfit":4077,"aging":4078,"ows":4079,"ĠMost":4080,"Ġassist":4081,"Ġadmit":4082,"Ġglad":4083,"Ġdestroy":4084,"fo":4085,"user":4086,"Ġparts":4087,"Ġhappens":4088,"Ġchecking":4089,"Sex":4090,"Since":4091,"point":4092,"Ġsend":4093,"ĠWas":4094,"Ġcomb":4095,"ĠYes":4096,"Ġsomebody":4097,"ĠOR":4098,"Ġintended":4099,"ĠIts":4100,"Ġcompet":4101,"Ġrefrain":4102,"ript":4103,"Ġpropaganda":4104,"911":4105,"itation":4106,"Ġseason":4107,"ĠMore":4108,"ĠGreat":4109,"Ġrefers":4110,"PA":4111,"Sp":4112,"rep":4113,"iven":4114,"Ġincident":4115,"Ġwebsites":4116,"imedia":4117,"ĠPaul":4118,"ĠMin":4119,"Ġspelling":4120,"ENT":4121,"Ġclicking":4122,"known":4123,"ĠLOSER":4124,"tt":4125,"Ġpersons":4126,"Ġpermission":4127,"Ġacknow":4128,"Ġpuppet":4129,"ĠMich":4130,"Ġknew":4131,"Ġrandom":4132,"lobal":4133,"ĠItal":4134,"Ġauthority":4135,"ray":4136,"Ġcond":4137,"Ġconduct":4138,"Ġchoose":4139,"const":4140,"Ġfront":4141,"Ġcontroversy":4142,"ĠBOOBS":4143,"38":4144,"Are":4145,"Dis":4146,"ience":4147,"Ġcategories":4148,"May":4149,"Ġ-)":4150,"Ġconstructive":4151,"Ġlegitimate":4152,"36":4153,"br":4154,"Ġbrief":4155,"Ġappe":4156,"ĠEngland":4157,"Ġjudge":4158,"igher":4159,"Ġstating":4160,"ilt":4161,"Ġnumerous":4162,"upport":4163,"Ġbitches":4164,"YOU":4165,"some":4166,"Ġinput":4167,"199":4168,"Ġminutes":4169,"Ġkilled":4170,"Ġapologize":4171,"ĠOFFFUCK":4172,"can":4173,"off":4174,"uz":4175,"Ġcal":4176,"ĠFurther":4177,"index":4178,"ciation":4179,"Ġvisit":4180,"08":4181,"Fair":4182,"Ġtouch":4183,"Ġchurch":4184,"Ġ[[":4185,"isation":4186,"Ġhost":4187,"Ġnik":4188,"Ġstraight":4189,"Ġspeech":4190,"Ġreput":4191,"::::":4192,"apt":4193,"Ġfather":4194,"Ġdecl":4195,"ĠJames":4196,"Ġcocks":4197,"Ġplayed":4198,"ãģ":4199,"Ġson":4200,"esis":4201,"Ġnight":4202,"ĠSup":4203,"Ġintent":4204,"OTH":4205,"HT":4206,"Ġcode":4207,"Ġanonymous":4208,"Ġconform":4209,"ĠHigh":4210,"ondon":4211,"Articles":4212,"AMN":4213,"Ġacademic":4214,"rh":4215,"Ġsomewhat":4216,"ures":4217,"Ġoffer":4218,"Ġ2014":4219,"OOOO":4220,"Ġnikko":4221,"%\"\"":4222,"bi":4223,"lin":4224,"su":4225,"Ġpun":4226,"ills":4227,"ĠHappy":4228,"Ġleaving":4229,"Ġfinding":4230,"alest":4231,"Ġsecondary":4232,"Ġupdate":4233,"Ġbeginning":4234,"Ġrecommend":4235,"hib":4236,"van":4237,"Ġsens":4238,"ĠAD":4239,"ĠRed":4240,"Ġlength":4241,"Ġfeed":4242,"Assad":4243,"34":4244,"69":4245,"ga":4246,"width":4247,"ades":4248,"ĠGA":4249,"Ġprint":4250,"Ġpositive":4251,"Hanibal":4252,"One":4253,"Ġadditions":4254,"istics":4255,"ACC":4256,"By":4257,"Ġmix":4258,"owing":4259,"ĠWould":4260,"Ġreverts":4261,"Ġfairly":4262,"Ġencyclopedic":4263,"Ġefforts":4264,"?\"\"":4265,"rees":4266,"ĠIrish":4267,"arks":4268,"ĠChinese":4269,"Ġstarting":4270,"Ġjoin":4271,"Questions":4272,"Ġagenda":4273,"37":4274,"ken":4275,"Ġstructure":4276,"ĠMon":4277,"ĠDAMN":4278,"Ġcontrad":4279,"ĠRem":4280,"Ġupdated":4281,"Ġconnection":4282,"Ġperfectly":4283,"ari":4284,"Ġreject":4285,"Ġkeeping":4286,"azine":4287,"Ġbands":4288,"tered":4289,"stream":4290,"Ġwaste":4291,"formation":4292,"Ġtrain":4293,"apers":4294,"Ġcompanies":4295,"Ġchecked":4296,"........":4297,"First":4298,"fortunately":4299,"Ġgra":4300,"ĠFl":4301,"Ġconsidering":4302,"Ġaccused":4303,"Ġparticipate":4304,"Ġcrap":4305,"icious":4306,"ĠMU":4307,"ĠDEN":4308,"ĠEvery":4309,"Ġapplic":4310,"Ġcopyrighted":4311,"protect":4312,"].":4313,"Ġalleg":4314,"ĠTHIS":4315,"opyright":4316,"Ġfollowed":4317,"alent":4318,"ĠGermany":4319,"Ġlicens":4320,"\":":4321,"BO":4322,"Ed":4323,"bl":4324,"down":4325,"vey":4326,"Ġlogged":4327,"ossible":4328,"________________":4329,"ĠHAVE":4330,"cle":4331,"tr":4332,"Ġgirl":4333,"arded":4334,"umn":4335,"Ġgod":4336,"Ġwatching":4337,"ĠGetting":4338,"54":4339,"fact":4340,"inter":4341,"ara":4342,"Ġredu":4343,"alled":4344,"force":4345,"Ġmoving":4346,"Ġsyn":4347,"68":4348,"ya":4349,"ican":4350,"Ġ27":4351,"law":4352,"Ġimm":4353,"ured":4354,"Ab":4355,"Ġil":4356,"Ġtar":4357,"ĠCity":4358,"oses":4359,"Ġrequested":4360,"Ġniggas":4361,"ACCESS":4362,"Ġfem":4363,"ĠCould":4364,"Ġdisplay":4365,"atively":4366,"Ġsmart":4367,"Ġstudents":4368,"Ġproposal":4369,"EID":4370,"TM":4371,"mon":4372,"nel":4373,"reland":4374,"Ġanywhere":4375,"Ġfailed":4376,"48":4377,"Go":4378,"Or":4379,"iated":4380,"Ġtone":4381,"Ġparent":4382,"ĠRo":4383,"ĠOK":4384,"Ġsuggestions":4385,"Ġphilos":4386,"ccording":4387,"undred":4388,"Yeah":4389,"iant":4390,"atives":4391,"Ġcorre":4392,"Ġgoogle":4393,"sequ":4394,"oper":4395,"Ġsold":4396,"ĠLAW":4397,"Ġintellig":4398,"Ġfool":4399,"Ġinsist":4400,"ĠsexSex":4401,"Ġeasier":4402,"king":4403,"Ġ$":4404,"Ġsla":4405,"Ġfelt":4406,"Ġdied":4407,"ĠKore":4408,"Ġseemed":4409,"ĠComp":4410,"Ġengine":4411,"ĠDENEID":4412,"IV":4413,"onna":4414,"Ġpsych":4415,"Ġlie":4416,"Ġcolor":4417,"Ġdistin":4418,"Ġrequires":4419,"Ġshortly":4420,"Ġboard":4421,"Ġten":4422,"Ġsize":4423,"orrow":4424,"Arch":4425,"LEA":4426,"background":4427,"ergy":4428,"ift":4429,"ĠCour":4430,"ĠMedia":4431,"ĠEast":4432,"Ġoffensive":4433,"Ġkey":4434,"Ġelsewhere":4435,"AGE":4436,"Ġimproving":4437,"Ġlimited":4438,"Ġmisleading":4439,"oca":4440,"Ġfart":4441,"Ġwhom":4442,"ĠAng":4443,"ĠCatholic":4444,"ĠDE":4445,"ĠFrom":4446,"Ġthinks":4447,"Ġcomprom":4448,"Ġlanguages":4449,"Ġfunny":4450,"Who":4451,"ĠSecond":4452,"Ġability":4453,"ĠJack":4454,"âĢĵ":4455,"anning":4456,"ĠAdd":4457,"06":4458,"cil":4459,"entially":4460,"rog":4461,"ocrat":4462,"Ġsett":4463,"%;":4464,"09":4465,"44":4466,"ino":4467,"Ġhop":4468,"Ġnotes":4469,"ĠFr":4470,"Ġheav":4471,"Ġpolice":4472,"ittee":4473,"Ġfamous":4474,"miss":4475,"Ġple":4476,"Ġrepl":4477,"\"\")":4478,"Ġforgot":4479,"ĠChina":4480,"Ġreferred":4481,"56":4482,"xual":4483,"Ġhigher":4484,"ĠCategory":4485,"ĠMet":4486,"Ġrude":4487,"lace":4488,"Ġspeaking":4489,"orship":4490,"Ġ2013":4491,"Ġexperimenting":4492,"Ġemploy":4493,"db":4494,"inent":4495,"ĠApp":4496,"olf":4497,"ĠPers":4498,"artment":4499,"Ġtrack":4500,"Ġstrongly":4501,"Ġconclusion":4502,"Ġyoung":4503,"ĠPort":4504,"ĠMany":4505,"ander":4506,"ysis":4507,"Ġtitles":4508,"Ġintroduction":4509,"Ġquickly":4510,"she":4511,"Ġut":4512,"ises":4513,"Ġcant":4514,"Ġpush":4515,"Ġworse":4516,"fered":4517,"ANN":4518,"Ġrunning":4519,"Ġcoverage":4520,"57":4521,"Ð°":4522,"Ġdates":4523,"Ġinn":4524,"asion":4525,"ushing":4526,"Ġlines":4527,"urb":4528,"Ġregist":4529,"Ġexistence":4530,"Ġpromote":4531,"Ġdouble":4532,"ĠJapanese":4533,"AK":4534,"ih":4535,"vil":4536,"ĨĴ":4537,"revert":4538,"ĠDes":4539,"Ġworry":4540,"Ġchoice":4541,"accur":4542,"Ġcost":4543,"Ġcontents":4544,"ahah":4545,"Ġblood":4546,"Ġslight":4547,"Ġreplaced":4548,"42":4549,"58":4550,"bys":4551,"Ġtax":4552,"Ġeat":4553,"ĠHind":4554,"Ġhelping":4555,"Ġtown":4556,"Ġhundred":4557,"Ġancient":4558,".....":4559,"Ġunne":4560,"ĠTherefore":4561,"Ġtriv":4562,"Ġdevelopment":4563,"Ġeyes":4564,"Americ":4565,"mo":4566,"Ġbold":4567,"Ġdraw":4568,"alt":4569,"ĠAS":4570,"une":4571,"Ġsupporting":4572,"Ġaddressed":4573,"ALK":4574,"Ġdetermin":4575,"GG":4576,"post":4577,"ĠBlack":4578,"!!'":4579,"ruction":4580,"FFFF":4581,"Ġraised":4582,"2010":4583,"ĠLAWDY":4584,"Ind":4585,"diff":4586,"eff":4587,"Ġsan":4588,"Ġwater":4589,"Ġattribut":4590,"Ġpointed":4591,"ĠArticles":4592,"Ġhomo":4593,"ein":4594,"Ġsca":4595,"ĠIreland":4596,"roat":4597,"Ġareas":4598,"Ġcriterion":4599,"AAAA":4600,"Ġadditional":4601,"AHAHAHAHAHAHAHAH":4602,"ius":4603,"erry":4604,"ĠAL":4605,"Ġord":4606,"Ġmeasure":4607,"urg":4608,"pped":4609,"ĠDR":4610,"Ġheld":4611,"Ġbiographies":4612,"Ġbasically":4613,"Ġeye":4614,"rhbys":4615,"59":4616,"Act":4617,"UM":4618,"raid":4619,"Ġexplicit":4620,"outhban":4621,"FUCKFUCKFUCKFUCKFUCKFUCKFUCKFUCK":4622,"rhbysouthban":4623,"rhbysouthbanof":4624,"Cl":4625,"LD":4626,"cies":4627,"mine":4628,"Ġdie":4629,"Ġacting":4630,"Ġhelps":4631,"itional":4632,"Ġestablish":4633,"wo":4634,"istor":4635,"Ġcock":4636,"pective":4637,"Ġreports":4638,"Ġplaying":4639,"nnnnnnnnnnnnnnnnnnnnnnnnnnnnnnnn":4640,"ky":4641,"ederal":4642,"ali":4643,"ĠWhere":4644,"Ġpred":4645,"Ġtruly":4646,"erman":4647,"ringe":4648,"Ġvictim":4649,".[":4650,"PG":4651,"key":4652,"Ġbattle":4653,"Ġcat":4654,"stood":4655,"Ġblocks":4656,"ĠChar":4657,"Ġsubjects":4658,"Ġattempts":4659,"SHUT":4660,"Ġinvolvement":4661,"reh":4662,"Ġbunch":4663,"Ġmiddle":4664,"Ġhouse":4665,"ĠCor":4666,"Ġagreed":4667,"ends":4668,"Ġfunction":4669,"tytytytytytytytytytytytytytytyty":4670,"Ġfreedom":4671,"ustic":4672,"ĠRel":4673,"ĠRich":4674,"Ġundo":4675,"!!!!!!!!!!!!!!!!!!!!!!!!!!!!!!!!!!!!!!!!!!!!!!!!!!!!!!!!!!!!!!!!":4676,"Fe":4677,"title":4678,"Ġsn":4679,"Ġreve":4680,"ĠParty":4681,"Ġindust":4682,"Ġverify":4683,"Ġprofessional":4684,"Ġstalk":4685,"Ġsoft":4686,"clud":4687,"osh":4688,"osp":4689,"Ġmatters":4690,"Ġcontributor":4691,"Ġgramm":4692,"ception":4693,"Ġentries":4694,"Ġbiography":4695,"ĠUSA":4696,"Ġprotected":4697,"Ġreached":4698,"Ġwind":4699,"ĠID":4700,"amil":4701,"Ġconvers":4702,"irm":4703,"Ġrange":4704,"Ġcontains":4705,"Ġregion":4706,"ĠSov":4707,"Ġletter":4708,"Ġidentity":4709,"Ġrelationship":4710,"Le":4711,"anced":4712,"Ġforget":4713,"ĠFOR":4714,"Ġunre":4715,"Ġclosed":4716,"iverse":4717,"Ġcircum":4718,"ying":4719,"Ð¾":4720,"Ġdi":4721,"orts":4722,"ĠLaw":4723,"Ġsuppose":4724,"Ġthoughts":4725,"Ġlocated":4726,"Notrhbysouthbanof":4727,"Add":4728,"Ġcovered":4729,"Ġren":4730,"ĠSam":4731,"ĠRight":4732,"Ġpointing":4733,"Ġoriginally":4734,"Ġreviewed":4735,"Ġlogic":4736,"Ġcontinued":4737,"Rem":4738,"cast":4739,"Ġ26":4740,"IGHT":4741,"uppets":4742,"Ġprotection":4743,"ĠSerb":4744,"ĠBLP":4745,"Ġnormal":4746,"iqu":4747,"anger":4748,"ĠLa":4749,"INK":4750,"Ġthreats":4751,"ĠPresident":4752,"Let":4753,"books":4754,"Ġsilly":4755,"ida":4756,"ĠHol":4757,"Ġrank":4758,"pled":4759,"ptions":4760,"Ġcareful":4761,"efin":4762,"ĠEuropean":4763,"Page":4764,"Ġsix":4765,"agon":4766,"irit":4767,"ĠHelp":4768,"Ġsomehow":4769,"Ġ28":4770,"They":4771,"ĠCanada":4772,"RAPCRAPCRAPCRAPCRAPCRAPCRAPCRAPC":4773,"sure":4774,"Ġdig":4775,"rie":4776,"ĠDI":4777,"Ġcorrectly":4778,"Ġthroughout":4779,"Ġbuilding":4780,"Ġcounter":4781,"krain":4782,"uous":4783,"word":4784,"astic":4785,"Ġunlike":4786,"ĠAlthough":4787,"ĠCommun":4788,"Ġfootball":4789,"Ġnewspaper":4790,"Ġilleg":4791,"Ġodd":4792,"Ġlay":4793,"sec":4794,"ĠFre":4795,"Ġpron":4796,"Ġharm":4797,"ictionary":4798,"Ġafraid":4799,"47":4800,"Ġx":4801,"ĠNazi":4802,"Ġintegr":4803,"who":4804,"Ġdisputed":4805,"Stop":4806,"Ġoccup":4807,"Ġdelay":4808,"Ġalternative":4809,"07":4810,"46":4811,"Get":4812,"bel":4813,"etic":4814,"your":4815,"ĠÎ":4816,"oul":4817,"Ġfol":4818,"Ġprogress":4819,"Ġdefined":4820,"ĠWikipedians":4821,"Ġfinally":4822,"Ġnation":4823,"owers":4824,"ĠPat":4825,"ĠHer":4826,"racy":4827,"Ġpeer":4828,"Ġenergy":4829,"Ġresolution":4830,"Ġdetailed":4831,"Ġarchive":4832,"Ġfigures":4833,"Ġmentions":4834,"Ġcollabor":4835,"ĠCounty":4836,"53":4837,"88":4838,"ORE":4839,"Preceding":4840,"iny":4841,"Ġfire":4842,"Ġcommer":4843,"Ġcitiz":4844,"Ġkeeps":4845,"Ġharassment":4846,"Ġappeared":4847,"Me":4848,"Per":4849,"iate":4850,"Ġaud":4851,"Ġinaccur":4852,"Ġmistakes":4853,"Ġexperienced":4854,"Ġeventually":4855,"Ġsurprised":4856,"Ø§":4857,"amer":4858,"anted":4859,"rug":4860,"Ġrestored":4861,"Ġopposed":4862,"ĠGeorge":4863,"Ġerrors":4864,"32":4865,"UR":4866,"ux":4867,"ĠNAME":4868,"iance":4869,"Ġprovides":4870,"Ġcontradict":4871,"link":4872,"news":4873,"yan":4874,"Ġbul":4875,"ĠTR":4876,"Ġalle":4877,"cessary":4878,"ANT":4879,";\"\"":4880,"At":4881,"Ġsqu":4882,"Ġang":4883,"Ġlos":4884,"Ġgonna":4885,"Ġasser":4886,"irty":4887,"Ġrace":4888,"ĠLook":4889,"ritten":4890,"Ġdefend":4891,"Ġinstruct":4892,"Ġhardly":4893,"Ġdealing":4894,"Ġtranslation":4895,"Ġterrit":4896,"ĠAfrican":4897,"Ġcross":4898,"Ġdumb":4899,"ief":4900,"Ġattitude":4901,"Ġtwice":4902,"Ġproven":4903,"ĠArmen":4904,"Ġlots":4905,"03":4906,"Ne":4907,"hr":4908,"Ġtheories":4909,"ĠTimes":4910,"ĠSun":4911,"ĠBY":4912,"ĠLondon":4913,"Ġfac":4914,"Ġproviding":4915,"Ġcaused":4916,"Ġsolution":4917,"ĠInternet":4918,"\",":4919,"EL":4920,"Ġdegree":4921,"ĠMag":4922,"ership":4923,"riv":4924,"ĠFran":4925,"Ġjustify":4926,"Ġassess":4927,"Ġwars":4928,"Ġinternational":4929,"Ġprivate":4930,"Ġsufficient":4931,"ustice":4932,"IOT":4933,"even":4934,"Ġ+":4935,"Ġlock":4936,"ctor":4937,"ĠWW":4938,"Ġevolution":4939,"accept":4940,"Ġsexual":4941,"Ġstudies":4942,"Ġpaid":4943,"Ġmodel":4944,"Ġdeserve":4945,"Did":4946,"oly":4947,"za":4948,"Ġ~":4949,"ĠBill":4950,"illage":4951,"Ġshot":4952,"ĠFile":4953,"Ġhealth":4954,"ĠJud":4955,"Ġcompar":4956,"Ġsymb":4957,"ole":4958,"vir":4959,"à®":4960,"Ġmamas":4961,"image":4962,"Ġ29":4963,"ITH":4964,"Ġmentioning":4965,"ĠShould":4966,"Ġassociated":4967,"Small":4968,"rd":4969,"vere":4970,"Ġ(\"\"":4971,"olit":4972,"ĠLike":4973,"ongrat":4974,"Ġappeal":4975,"Ġmissed":4976,"Ġunblocked":4977,"04":4978,"Rep":4979,"Ġwin":4980,"ĠDem":4981,"osexual":4982,"Ġreasoning":4983,"Ġsuggesting":4984,"ĠAustralia":4985,"ria":4986,"Ġrock":4987,"Ġquoted":4988,"Ġsignificance":4989,"Ġannoy":4990,"64":4991,"ALL":4992,"uel":4993,"Ġnar":4994,"Ġthats":4995,"ĠWales":4996,"ophy":4997,"Ġadop":4998,"Ġtagging":4999,"Ġwarned":5000,"Ġmerged":5001,"ĠPhil":5002,"Ġlatest":5003,"Ġwidely":5004,"BAG":5005,"Ġbegan":5006,"ĠAc":5007,"oyal":5008,"ĠArb":5009,"Ġbelongs":5010,"ĠAsso":5011,"Ġinterpretation":5012,"Ġwoman":5013,"orough":5014,"het":5015,"ĠSan":5016,"ĠMal":5017,"Ġnearly":5018,"standing":5019,"IDIOT":5020,"Ġreviews":5021,"OLE":5022,"Ġsentences":5023,"ussy":5024,"reliable":5025,"gypt":5026,"ĠCy":5027,"ĠBarnstar":5028,"ĠHouse":5029,"Ġrul":5030,"Ġsociety":5031,"...\"\"":5032,"ressed":5033,"Ġciting":5034,"Ġspecified":5035,"Ġbusy":5036,"Ġlaugh":5037,"Ġcomplaint":5038,"Ġcopied":5039,"OI":5040,"ĠWelcome":5041,"ĠâĢĺ":5042,"phas":5043,"Ġlisting":5044,"Ġregardless":5045,"Ġfiles":5046,"Ġpresident":5047,"Ġanalysis":5048,"Ġsplit":5049,"Actually":5050,"ĠSoviet":5051,"05":5052,"From":5053,"alls":5054,"earch":5055,"Ġsave":5056,"Ġspread":5057,"othing":5058,"Ġsignature":5059,"ĠWhite":5060,"Ġplayers":5061,"Ġconcerning":5062,"ruption":5063,"Ġmetal":5064,"Ġclarify":5065,"Speedy":5066,"Category":5067,"ault":5068,"pd":5069,"vo":5070,"ĠII":5071,"Ġgain":5072,"Ġaltered":5073,"berg":5074,"Ġdisputes":5075,"Ġarbitration":5076,"Ġdomain":5077,"41":5078,"Res":5079,"ua":5080,"Ġmal":5081,"ĠBo":5082,"ĠBrad":5083,"ĠDay":5084,"Ġdisapp":5085,"Ġdisambiguation":5086,"Ġstands":5087,"75":5088,"Pe":5089,"Ġearth":5090,"Ġmem":5091,"ĠFree":5092,"Ġanybody":5093,"Ġgoal":5094,"Ġviolate":5095,"piracy":5096,"face":5097,"âĻ":5098,"aker":5099,"boy":5100,"Ġmisunder":5101,"har":5102,"rey":5103,"Ġsick":5104,"Ġcra":5105,"Ġmitt":5106,"ĠAlex":5107,"verse":5108,"ĠPark":5109,"ĠMark":5110,"rible":5111,"Ġcontrary":5112,"Ġparties":5113,"Ġmainstream":5114,"Ġsummaries":5115,"Ġwishes":5116,"Ġcrim":5117,"Ġconfirmed":5118,"lenty":5119,"ĠCollege":5120,"Ġinfluence":5121,"mamas":5122,"Ġwest":5123,"olved":5124,"Ġcalls":5125,"ĠANI":5126,"Ġignored":5127,"Ġmedical":5128,"porary":5129,"ĠLICK":5130,"Ġignorant":5131,"Ġromney":5132,"85":5133,"Could":5134,"ape":5135,"bury":5136,"iers":5137,"Ġreads":5138,"Ġrestore":5139,"Ġattempting":5140,"Ġlocation":5141,"Ġidentify":5142,"Ġboymamas":5143,"Ġlatter":5144,"Regarding":5145,"cellent":5146,"31":5147,"ii":5148,"uu":5149,"Ġant":5150,"ĠSP":5151,"iples":5152,"cious":5153,"cussion":5154,"izations":5155,"ĠANY":5156,"Ġcrime":5157,"Ġperspective":5158,"Ġbenefit":5159,"Ġtarget":5160,"del":5161,"ipp":5162,"ĠPolic":5163,"ĠMOTH":5164,"0000":5165,"Ġcomplex":5166,"icken":5167,"ĠInc":5168,"while":5169,"Article":5170,"Ġdeliber":5171,"Ġversions":5172,"Ġcommercial":5173,"hood":5174,"ãĥ":5175,"ĠAR":5176,"Ġdeep":5177,"ĠBi":5178,"ĠLat":5179,"âĢ¢":5180,"âĢİ":5181,"Ġplain":5182,"Ġ2015":5183,"going":5184,"alleng":5185,"Ġblatant":5186,"Ġcompromise":5187,"76":5188,"Gu":5189,"erk":5190,"Ġfellow":5191,"ulated":5192,"Ġround":5193,"asty":5194,"Ġcritical":5195,"Ġconfusion":5196,"white":5197,"Ġsusp":5198,"Ġapplied":5199,"Int":5200,"LA":5201,"Main":5202,"bre":5203,"hh":5204,"Ġjump":5205,"Ġconfusing":5206,"obert":5207,"Ġthousands":5208,"Ġexcuse":5209,"Ġfeedback":5210,"NPOV":5211,"thony":5212,"rior":5213,"Ġintro":5214,"!!!!!!":5215,"Ġlisten":5216,"ĠAmericans":5217,"Ġaffect":5218,"ĠWestern":5219,"ĠKingdom":5220,"cest":5221,"Ġult":5222,"Ġsal":5223,"iginal":5224,"ĠSO":5225,"Ġking":5226,"ĠRock":5227,"Ġremind":5228,"irection":5229,"Ġaccident":5230,"China":5231,"Ġrevision":5232,"CA":5233,"Ġfans":5234,"igger":5235,"ĠBro":5236,"ĠHit":5237,"Ġpeace":5238,"Ġcredit":5239,"Ġspend":5240,"lands":5241,"Ġforeign":5242,"RH":5243,"why":5244,"Ġ>":5245,"Ġlives":5246,"hered":5247,"ĠDa":5248,"Ġworst":5249,"ĠStop":5250,"Ġcurious":5251,"idden":5252,"Ġachieve":5253,"lan":5254,"ued":5255,"wood":5256,"article":5257,"istent":5258,"ivity":5259,"ires":5260,"Ġpropose":5261,"Ġbrother":5262,"Ġopening":5263,"ĠCommons":5264,"Ġturned":5265,"Ġannoun":5266,"Ġdamn":5267,"Admin":5268,"Ġpotential":5269,"ĠMichael":5270,"55":5271,"fa":5272,"ien":5273,"note":5274,"Ġped":5275,"Ġplenty":5276,"Ġloss":5277,"ĠBen":5278,"irgin":5279,"Ġvio":5280,"Ġtalkpage":5281,"Ġimpossible":5282,"Ġcareer":5283,"Ġ86":5284,"Ġopportun":5285,"Ġindividuals":5286,"Ġscholar":5287,"Ġcry":5288,"Ġpet":5289,"ette":5290,"Ġshut":5291,"Ġuserpage":5292,"ĠReview":5293,"Ġauthors":5294,"Ġextra":5295,"181":5296,"ĠGovern":5297,"Ġmarket":5298,"Ġminority":5299,"ĠPolish":5300,"Okay":5301,"49":5302,"RC":5303,"orse":5304,"iforn":5305,"ĠMat":5306,"Ġconserv":5307,"there":5308,"Ġlogo":5309,"Ġobjective":5310,"Ġmotiv":5311,"Ġfundament":5312,"cal":5313,"field":5314,"Ġri":5315,"Ġcy":5316,"imin":5317,"seud":5318,"Ġspent":5319,"Ġinvent":5320,"Ġsoftware":5321,"Ġsymbol":5322,"02":5323,"Note":5324,"aur":5325,"mit":5326,"ses":5327,"tw":5328,"ĠChan":5329,"Ġ2003":5330,"Ġcarefully":5331,"Ġcollect":5332,"Ġphotograph":5333,"Ġbegin":5334,"Ġtreatment":5335,"Ġresponsible":5336,"IVE":5337,"WH":5338,"Â·":5339,"ĠÃ":5340,"Ġstation":5341,"leted":5342,"ĠUkrain":5343,"Ġsourcing":5344,"Ġremarks":5345,"Ġoffice":5346,"Ġlogical":5347,"curity":5348,"ĠObama":5349,"98":5350,"Ph":5351,"Tr":5352,"from":5353,"itute":5354,"Ġfra":5355,"Ġdraft":5356,"Ġelection":5357,"uns":5358,"ĠPalest":5359,"Ġrout":5360,"Ġhasn":5361,"abe":5362,"ĠRussia":5363,"Ġdetermine":5364,"IF":5365,"omas":5366,"verage":5367,"urder":5368,"ĠStar":5369,"viously":5370,"Ġspecify":5371,"Ġ55":5372,"Ġroll":5373,"78":5374,"SUCK":5375,"ĠSk":5376,"ĠBra":5377,"Ġvoice":5378,"ribe":5379,"ĠKeep":5380,"Ġregular":5381,"Ġcorrected":5382,"Ġholder":5383,"Ġmagazine":5384,"MA":5385,"ghan":5386,"rs":5387,"onment":5388,"Ġpushing":5389,"Ġhat":5390,"Ġrevers":5391,"utions":5392,"adian":5393,"ĠYTM":5394,"ordin":5395,"ĠRfC":5396,"Ġbecoming":5397,"Archive":5398,"ĠYTMND":5399,"Im":5400,"ĠAir":5401,"ams":5402,"ady":5403,"ĠCons":5404,"ĠKN":5405,"Ġcontributed":5406,"hington":5407,"ĠUnfortunately":5408,"Ġpolitics":5409,"OCKS":5410,"Ġengage":5411,"ĠEDIT":5412,"Ġcriminal":5413,"En":5414,"rass":5415,"ĠSing":5416,"Ġsemi":5417,"ĠPAGE":5418,"Ġheart":5419,"ĠEmp":5420,"ĠOff":5421,"Ġevil":5422,"Ġchart":5423,"ributions":5424,"Ġvandalizing":5425,"Ġdifferences":5426,"Ġresponded":5427,"Ġnecessarily":5428,"Ġconsistent":5429,"ĠOtherwise":5430,"Ġunnecessary":5431,"Of":5432,"flict":5433,"orter":5434,"ĠTemplate":5435,"Ġstrange":5436,"ĠBig":5437,"ĠFan":5438,"ĠNE":5439,"ortion":5440,"Ġamb":5441,"Ġplot":5442,"Ġroom":5443,"Ġlaws":5444,"Ġmediation":5445,"FDL":5446,"American":5447,"Ġconversation":5448,"52":5449,"lation":5450,"onest":5451,"itz":5452,"Ġincomp":5453,"ula":5454,"Ġcompreh":5455,"Ġattacking":5456,"Ġassuming":5457,"ĠSpanish":5458,"contribs":5459,"esterday":5460,"Ġencourage":5461,")?":5462,"UST":5463,"WW":5464,"ij":5465,"win":5466,"Ġaim":5467,"ĠSal":5468,"ĠDID":5469,"Ġimpression":5470,"ITE":5471,"Ġcontinues":5472,"Ġminim":5473,"Ġstudent":5474,"iety":5475,"amming":5476,"Ġfighting":5477,"Ġexpanded":5478,"File":5479,"sub":5480,"vention":5481,"Â´":5482,"ÙĦ":5483,"Ġpussy":5484,"ĠFrank":5485,"Ġunable":5486,"icker":5487,"Ġgrad":5488,"atured":5489,"Ġarguing":5490,"Ġimproved":5491,"Ġaward":5492,"ĠOnly":5493,"Ġtechnical":5494,"Ġwaiting":5495,"Ġcredible":5496,"ANDAL":5497,"65":5498,"UE":5499,"pre":5500,"Ġlying":5501,"Ġsuitable":5502,"Ġsole":5503,"alling":5504,"Ġremains":5505,"Ġaccuse":5506,"ĠArch":5507,"Ġpublication":5508,"Ġfilms":5509,"Ġdemand":5510,"Ġrepeat":5511,"Ġtreated":5512,"Ġnatural":5513,"Ġalleged":5514,"acceptable":5515,"ifornia":5516,"90":5517,"arm":5518,"ston":5519,"Ġrate":5520,"aste":5521,"Ġprecise":5522,"iously":5523,"Ġperman":5524,"Ġviewpoint":5525,"ographical":5526,"Ġrestrict":5527,"++":5528,"Ġsides":5529,"lements":5530,"Ġhour":5531,"Ġlower":5532,"ĠWITH":5533,"ifiability":5534,"ola":5535,"ett":5536,"ĠMed":5537,"Ġpoll":5538,"LLOCKS":5539,"Ġprojects":5540,"ARD":5541,"Ġpassed":5542,"ĠWilliam":5543,"John":5544,"NOT":5545,"Ðµ":5546,"Ġfasc":5547,"Ġnaming":5548,"oted":5549,"Ġforth":5550,"ĠAzer":5551,"ĠFound":5552,"Ġconspiracy":5553,"ocracy":5554,"Ġhopefully":5555,"Ġreporting":5556,"ĠNov":5557,"Ġlearned":5558,"Ġhistorians":5559,"Does":5560,"Ġapplies":5561,"Ġeducation":5562,"TC":5563,"zz":5564,"Ġdro":5565,"Ġproced":5566,"Ġdecla":5567,"Ġagreement":5568,"Ġpathetic":5569,"Ġprotest":5570,"70":5571,"?\"":5572,"She":5573,"uine":5574,"Ġhide":5575,"icro":5576,"herent":5577,"rol":5578,"Ġfault":5579,"ougar":5580,"Ġuseless":5581,"Ġverified":5582,"ĠWhich":5583,"Ġbrain":5584,"ONGO":5585,"BOLLOCKS":5586,"Ġexplicitly":5587,"hic":5588,"ios":5589,"orpor":5590,"ĠCON":5591,"ĠBA":5592,"Ġdisg":5593,"Ġobser":5594,"levision":5595,"Ġhands":5596,"SELESS":5597,"Ġphysical":5598,"Ġaspects":5599,"DD":5600,"yp":5601,"imately":5602,"istry":5603,"ĠBul":5604,"ĠBOT":5605,"Ġsuff":5606,"andy":5607,"soever":5608,"ĠUSELESS":5609,"ranch":5610,"Ġrequests":5611,"ĠDec":5612,"ĠCUNTBAG":5613,"Ġactivity":5614,"ĠCOCKSUCK":5615,"Ġbecomes":5616,"Ġbeliefs":5617,"89":5618,"IAN":5619,"Ġsecret":5620,"ĠCr":5621,"Ġvirt":5622,"Ġdismiss":5623,"ĠEgypt":5624,"aha":5625,"Ġeditorial":5626,"However":5627,"istrators":5628,"Ġlarger":5629,"ĠQue":5630,"Ġâĺ":5631,"Deletion":5632,"========":5633,"SD":5634,"pages":5635,"pace":5636,"onic":5637,"itled":5638,"Ġbill":5639,"Ġcougar":5640,"ico":5641,"Ġproceed":5642,"letter":5643,"Ġcompared":5644,"Ġspirit":5645,"ĠâĻ":5646,"While":5647,"ĠWikimedia":5648,"Ġdeserves":5649,"Requests":5650,"Ġinvestigation":5651,"Eng":5652,"Ver":5653,"Ð¸":5654,"Ġlived":5655,"ager":5656,"ikh":5657,"ĠSat":5658,"ritic":5659,"Ġfreely":5660,"Ġplayer":5661,"Ġ70":5662,"Ġscholars":5663,"Ġ;)":5664,"ĠItalian":5665,"ĠCourt":5666,"Ġreveal":5667,"43":5668,"PP":5669,"lig":5670,"Ġ01":5671,"ĠAT":5672,"rovers":5673,"version":5674,"arely":5675,"OUS":5676,"Ġaccusing":5677,"Ġimprovement":5678,"uke":5679,"Ġtrolling":5680,"Ġindustry":5681,"ĠHitler":5682,".âĢĿ":5683,"nce":5684,"Ġought":5685,"Ġmid":5686,"ĠCroat":5687,"Ġrap":5688,"ĠNY":5689,"Ġchalleng":5690,"Ġnewcom":5691,"ĠAlban":5692,"Ġcities":5693,"Ġattacked":5694,"ĠAnthony":5695,"Ġinside":5696,"Ġenglish":5697,"Ġliterature":5698,"Bastered":5699,"itar":5700,"Ġpull":5701,"ĠThose":5702,"Ġseek":5703,"bert":5704,"Ġgenuine":5705,"Ġsurely":5706,"Ġrealized":5707,"Ġmainly":5708,"Ġblue":5709,"IKE":5710,"Ġcoupled":5711,"Vandalism":5712,"rely":5713,"astern":5714,"Ġwhore":5715,"ĠBastered":5716,"Ġdoz":5717,"Ġwhatsoever":5718,"ection":5719,"ĠYOUBOLLOCKS":5720,"Ġgrow":5721,"ĠArmy":5722,"Ġsuggests":5723,"Ġcollege":5724,"ronic":5725,"Ġequal":5726,"ĠInstead":5727,"Ġnetwork":5728,"represent":5729,"OC":5730,"aid":5731,"ki":5732,"itness":5733,"Ġancest":5734,"Ġstar":5735,"ĠMart":5736,"Ġmyth":5737,"ĠEVER":5738,"Ġchicken":5739,"Ġready":5740,"they":5741,"Ġheading":5742,"Ġaccusation":5743,"Ġmistaken":5744,"Ġbuilt":5745,"Ġdamage":5746,"Ġhypoc":5747,"ĠAssociation":5748,"With":5749,"fess":5750,"edu":5751,"ĠAnn":5752,"ĠMor":5753,"Ġusual":5754,"ĠEv":5755,"Ġpeoples":5756,"OUT":5757,"Ġemphas":5758,"Christ":5759,"Ġneutrality":5760,"ĠTrans":5761,"ĠInternational":5762,"Ġparents":5763,"Ġgrammar":5764,"vironment":5765,"OD":5766,"padding":5767,"Ġ00":5768,"Ġ''''":5769,"Ġtom":5770,"asp":5771,"ĠConst":5772,"Ġpurposes":5773,"Ġcarry":5774,"Ġillustr":5775,"orthy":5776,"Ġcele":5777,"Ġinstructions":5778,"part":5779,"review":5780,"erd":5781,"Ġmale":5782,"Ġnative":5783,"ĠBush":5784,"ĠPak":5785,"Ġmechan":5786,"osen":5787,"Ġ31":5788,"Ġnoticeboard":5789,"ĠOnce":5790,"OME":5791,"Ġrecognized":5792,"constructive":5793,"ĠFurthermore":5794,"Copyright":5795,"Ġaverage":5796,"Ġoil":5797,"Ġhot":5798,"tics":5799,"ĠMil":5800,"ustom":5801,"raq":5802,"izard":5803,"ifications":5804,"ggiet":5805,"ATION":5806,"Ġviolations":5807,"Ġstrict":5808,"Ġadvance":5809,"Ġslow":5810,"Ġschools":5811,"fficial":5812,"ĠSTOP":5813,"ggietales":5814,"jud":5815,"xy":5816,"Ġfast":5817,"Ġarmy":5818,"unte":5819,"ĠPERS":5820,"Ġshame":5821,"ĠGFDL":5822,"ĠEarth":5823,"ĠJo":5824,"ĠJer":5825,"Ġweren":5826,"Ġsafe":5827,"ĠUnion":5828,"Ġbio":5829,"oldid":5830,"ĠFUCKER":5831,"Ġpossibility":5832,"Ġlearning":5833,"Ġartist":5834,"Ġveggietales":5835,"Ġradio":5836,"Ġhundreds":5837,"Ġinaccurate":5838,"Block":5839,"Have":5840,"UL":5841,"sch":5842,"vin":5843,"Ġtim":5844,"Ġsake":5845,"ingly":5846,"Ġhence":5847,"Ġonto":5848,"ads":5849,"Ġ2000":5850,"cyclopedia":5851,"Ġgreater":5852,"Ġobjection":5853,"ĠNorthern":5854,"Ġuncivil":5855,"Ġliberal":5856,"ocratic":5857,"cluding":5858,"86":5859,"NA":5860,"TR":5861,"mar":5862,"non":5863,"names":5864,"oon":5865,"Ġthorough":5866,"Ġpiss":5867,"Ġlol":5868,"ĠAB":5869,"ĠCoun":5870,"ulate":5871,"Ġunique":5872,"ĠGreen":5873,"ĠThus":5874,"ĠKo":5875,"coming":5876,"ĠVANDAL":5877,"Ġexisted":5878,"ĠBritain":5879,"Ġtermin":5880,"Ġfavour":5881,"Ġepisodes":5882,"ĠAustralian":5883,"ĠCle":5884,"uplic":5885,"apter":5886,"ĠDeletion":5887,"Ġlargely":5888,"Ġunclear":5889,"Ġassertion":5890,"ror":5891,"tes":5892,"wan":5893,"à¤":5894,"Ġfood":5895,"Ġlit":5896,"Ġforces":5897,"thanks":5898,"Ġste":5899,"ĠFR":5900,"anguage":5901,"orning":5902,"Ġaccuracy":5903,"Ġresponding":5904,"Ġdocuments":5905,"Ġbroken":5906,"Ġsongs":5907,"ĠTurkish":5908,"Ġcellpadding":5909,"Ġillegal":5910,"After":5911,"Look":5912,"gn":5913,"oved":5914,"please":5915,"yes":5916,"arc":5917,"heless":5918,"iano":5919,"Ġensure":5920,"Ġresources":5921,"Ġhelped":5922,"Ġgrand":5923,"Ġadvoc":5924,"Ġcultural":5925,"Ġunfair":5926,"ĠAfrica":5927,"87":5928,"Sc":5929,"fr":5930,"pub":5931,"tions":5932,"uate":5933,"isk":5934,"Ġfear":5935,"Ġglobal":5936,"iful":5937,"istration":5938,"ĠRam":5939,"ONE":5940,"ĠCommittee":5941,"ĠAtt":5942,"Ġrewrite":5943,"BLOCK":5944,"Ġinitial":5945,"Ġinnoc":5946,"ĠPERSON":5947,"Mat":5948,"wik":5949,"Ã¼":5950,"Ġdirection":5951,"section":5952,"Ġshoot":5953,"Ġunacceptable":5954,"Ġamaz":5955,"Ġenforce":5956,"Ġmanip":5957,"compl":5958,"Ġdeveloped":5959,"Ġconvin":5960,"94":5961,"More":5962,"Pr":5963,"TE":5964,"vis":5965,"outhern":5966,"Ġoption":5967,"ĠIF":5968,"ritish":5969,"ounded":5970,"izes":5971,"ubb":5972,"acc":5973,"aves":5974,"Ġshowed":5975,"THIS":5976,"thodox":5977,"Ġcredibility":5978,"Ġterrorist":5979,"ĠRfA":5980,"ĠCalifornia":5981,"92":5982,"HOLE":5983,"hand":5984,"mark":5985,"itor":5986,"Ġyesterday":5987,"Ġobserv":5988,"Ġspot":5989,"ĠWashington":5990,"72":5991,"google":5992,"yer":5993,"Ġmach":5994,"Ġhol":5995,"usions":5996,"ĠPost":5997,"ĠLord":5998,"ibl":5999,"Ġwriter":6000,"ISM":6001,"Ġlargest":6002,"Ġsystems":6003,"bitration":6004,"Ġallegations":6005,"97":6006,"hold":6007,"Ġwikiped":6008,"anic":6009,"Ġdirty":6010,"ala":6011,"ĠAFD":6012,"ĠMex":6013,"iling":6014,"race":6015,"ĠEr":6016,"Ġremark":6017,"Ġunderstood":6018,"acing":6019,"Ġrecall":6020,"These":6021,"eek":6022,"Ġviolating":6023,"roduction":6024,"2006":6025,"lence":6026,"ĠIsraeli":6027,"Ġterrorism":6028,"Ġresolved":6029,"Ġacknowled":6030,"look":6031,"vices":6032,"Ġdrug":6033,"icks":6034,"ĠTALK":6035,"Ġforced":6036,"ĠWE":6037,"Ġmeat":6038,"illa":6039,"ĠRS":6040,"lah":6041,"Ġimpact":6042,"Ġindefin":6043,"Ġstopped":6044,"Ġformal":6045,"Ġended":6046,"Ġapart":6047,"ĠTurkey":6048,"Ġimagine":6049,"AP":6050,"auc":6051,"personal":6052,"Ã¡":6053,"Ġsle":6054,"Ġdia":6055,"Ġyeah":6056,"Ġunivers":6057,"Ġvan":6058,"Ġdise":6059,"ounds":6060,"Ġenem":6061,"oday":6062,"===":6063,"Ġvandals":6064,"ĠArt":6065,"Ġfeeling":6066,"Ġfollows":6067,"Ġcollection":6068,"Ġconstruct":6069,"Ġcentral":6070,"ĠScott":6071,"ophob":6072,"cre":6073,"fl":6074,"ancy":6075,"utch":6076,"Ġaside":6077,"ample":6078,"ival":6079,"Ġchat":6080,"Ġvandalized":6081,"Ġchem":6082,"Ġletting":6083,"Ġblind":6084,"Ġconstantly":6085,"Ġparagraphs":6086,"ĠWHY":6087,"Ġactivities":6088,"Ġtools":6089,"ĠJimbo":6090,"ĠEmpire":6091,"61":6092,"EA":6093,"night":6094,"Ġtact":6095,"ĠPeter":6096,"ĠDel":6097,"itionally":6098,"ĠRead":6099,"Ġsigned":6100,"Ġadvise":6101,"Ġhappening":6102,"Ġobjections":6103,"Ġunfortunately":6104,"Ġhomosexual":6105,"ĠFrance":6106,"Ġfolks":6107,"Ah":6108,"bon":6109,"Ġug":6110,"Ġtired":6111,"orks":6112,"Ġbarnstar":6113,"Ġcas":6114,"Ġtoler":6115,"Ġduplic":6116,"ago":6117,"ĠTom":6118,"ĠBoth":6119,"ĠDep":6120,"Ġuniversity":6121,"azis":6122,"ĠAnother":6123,"Ġengaged":6124,"Ġbenefits":6125,"Ġresolve":6126,"Ġslightly":6127,"96":6128,"Would":6129,"Ġcatch":6130,"Ġpowers":6131,"Ġpseud":6132,"Ġlose":6133,"urrent":6134,"emit":6135,"Ġknowing":6136,"Ġintend":6137,"Ġspell":6138,"Ġbelieved":6139,"Ġinterests":6140,"obby":6141,"Ġinsulting":6142,"ĠChristianity":6143,"Ġimplies":6144,"hemat":6145,"Ġfemale":6146,"Ġopportunity":6147,"Ant":6148,"History":6149,"SP":6150,"cis":6151,"des":6152,"uable":6153,"aked":6154,"oooo":6155,"Ġprohib":6156,"Ġcommentary":6157,"ĠStud":6158,"Ġclue":6159,"Ġgenre":6160,"Ġgenetic":6161,"Ġentitled":6162,"Ġsupports":6163,"anna":6164,"Ġscreen":6165,"Ġ40":6166,"Ġmaterials":6167,"Ġdirected":6168,"ĠChristians":6169,"ocaust":6170,"Ġcitizens":6171,"NH":6172,"anoy":6173,"asy":6174,"ĠPress":6175,"Ġvast":6176,"ĠRobert":6177,"ords":6178,"Ġobs":6179,"Ġobtain":6180,"Ġolder":6181,"Ġ90":6182,"Ġattempted":6183,"Ġredirects":6184,"ĠScout":6185,"ĠWHAT":6186,"Ġexpected":6187,"Ġhonestly":6188,"Gen":6189,"Pl":6190,"cific":6191,"called":6192,"Ġongoing":6193,"ĠMac":6194,"Ġimplement":6195,"1967":6196,"Ġexplains":6197,"Ġforms":6198,"Ġcommonly":6199,"Ġclosely":6200,"Should":6201,"ĠBLOCK":6202,"ville":6203,"71":6204,"Again":6205,"brew":6206,"fD":6207,"pet":6208,"eration":6209,"Ġlif":6210,"ipl":6211,"ĠBet":6212,"Ġbutton":6213,"Ġweak":6214,"Ġspecies":6215,"ĠIPs":6216,"Ġaddresses":6217,"Ġcolumn":6218,"Ġsummar":6219,"Ġweezer":6220,"ĠProject":6221,"Ġequiv":6222,"Ġcriticisms":6223,"Ġreputation":6224,"ĠBradbury":6225,"51":6226,"JER":6227,"gment":6228,"hist":6229,"kins":6230,"lor":6231,"watch":6232,"yy":6233,"âĺ":6234,"Ġ@":6235,"Ġton":6236,"edd":6237,"Ġconvert":6238,"ĠCong":6239,"ĠFinally":6240,"Ġran":6241,"ĠLove":6242,"Ġprev":6243,"ounding":6244,"zero":6245,"Ġsubstantial":6246,"Ġcandidates":6247,"ĠPersian":6248,"YY":6249,"jan":6250,"puppets":6251,"ÑĢ":6252,"Ġwalk":6253,"ĠIraq":6254,"Ġitem":6255,"ĠSAG":6256,"ĠBBC":6257,"ĠBOB":6258,"Ġdish":6259,"ĠRec":6260,"Ġcapt":6261,"Ġpattern":6262,"ĠASSHOLE":6263,"ĠMuslims":6264,"Ġassistance":6265,"ĠMOTHJER":6266,"ĠCOCKSUCKER":6267,"PR":6268,"equ":6269,"Ġswe":6270,"Ġmouth":6271,"Ġdomin":6272,"icated":6273,"Ġlicker":6274,"Ġstre":6275,"Ġexec":6276,"Ġalter":6277,"ĠJose":6278,"Ġamer":6279,"perate":6280,"Ġserve":6281,"ĠCanadian":6282,"Ġappearance":6283,"ircraft":6284,"Ġcandidate":6285,"HER":6286,"fort":6287,"gent":6288,"mas":6289,"vandalism":6290,"wing":6291,"ãĤ":6292,"allen":6293,"Ġrelev":6294,"ĠCivil":6295,"ĠBas":6296,"ĠPoint":6297,"iled":6298,"Ġabusive":6299,"OULD":6300,"ĠSte":6301,"Then":6302,"Ġretarded":6303,"Ġignoring":6304,"ammad":6305,"Ġfinished":6306,"ĠTechn":6307,"Ġvotes":6308,"Ġregistered":6309,"Ġfraud":6310,"Ġnewcomers":6311,"Ġugly":6312,")\"\"":6313,"Bot":6314,"GE":6315,"Ge":6316,"band":6317,"ument":6318,"vio":6319,"inary":6320,"Ġsile":6321,"Ġdict":6322,"oto":6323,"ĠAGA":6324,"ĠMONGO":6325,"ĠLib":6326,"Ġowner":6327,"Ġwarrant":6328,"Ġexperts":6329,"Ġsurv":6330,"Ġrecords":6331,"Ġpromotional":6332,"Ġrecognize":6333,"Ġdocumented":6334,"Ġgrounds":6335,"Ġbalance":6336,"Ġlikes":6337,"Ġlicensed":6338,"delanoy":6339,"ĠSAGET":6340,"Wow":6341,"iest":6342,"ients":6343,"Ġ).":6344,"Ġbull":6345,"Ġdyn":6346,"hether":6347,"ipe":6348,"ĠBible":6349,"ĠDoc":6350,"Ġrice":6351,"ĠLiber":6352,"icted":6353,"Ġscript":6354,"Ġallows":6355,"Ġorganizations":6356,"Ġvehic":6357,"Ġreceive":6358,"Ġconstitutes":6359,"Ġstalking":6360,"-)":6361,"BI":6362,"phan":6363,"Ġtour":6364,"Ġbomb":6365,"eness":6366,"Ġflaw":6367,"Ġrender":6368,"\"\"\"":6369,"Ġarrog":6370,"Ġstories":6371,"ellect":6372,"ĠRaj":6373,"Ġapparent":6374,"ĠKurd":6375,"Ġdesigned":6376,"Ġplus":6377,"Ġeverybody":6378,"Ġelimin":6379,"Ġ||":6380,"Ġviolated":6381,"Ġleader":6382,"\"::::":6383,"IME":6384,"Ġignorance":6385,"ĠSwed":6386,"Ġphilosophy":6387,"Ġreplied":6388,"Ġtomorrow":6389,"Will":6390,"bai":6391,"Ġcru":6392,"Ġdedic":6393,"Ġya":6394,"ario":6395,"ros":6396,"change":6397,"ilities":6398,"eline":6399,"Ġexcellent":6400,"Ġcontract":6401,"!!!!!":6402,"Ġlinking":6403,"ribution":6404,"Ġthrow":6405,"ampions":6406,"ditions":6407,"Another":6408,"Ġpromotion":6409,"Ġsuccessful":6410,"Am":6411,"YK":6412,"bot":6413,"only":6414,"ancial":6415,"Ġmut":6416,"Ġhits":6417,"ĠTim":6418,"ĠAccording":6419,"sey":6420,"Ġprep":6421,"Ġchose":6422,"Ġobsc":6423,"Ġgreatly":6424,"Ġleading":6425,"Ġmedic":6426,"Ġrecorded":6427,"Ġlacking":6428,"Ġopposite":6429,"UUUU":6430,"33333333":6431,"Ġutter":6432,"eat":6433,"was":6434,"ona":6435,"Ġtoward":6436,"Ġfake":6437,"Ġgun":6438,"stein":6439,"ĠSub":6440,"ĠScience":6441,"Ġseven":6442,"opp":6443,"ĠPal":6444,"ĠMad":6445,"Ġkick":6446,"riting":6447,"Ġ2001":6448,"Ġdefine":6449,"Ġ99":6450,"Ġofficially":6451,"Ġfriendly":6452,"UNBLOCK":6453,"Ġskills":6454,"ughter":6455,"Ġhoax":6456,".'":6457,"82":6458,"84":6459,"born":6460,"png":6461,"ties":6462,"âĨĴ":6463,"Ġbullshit":6464,"Ġdanger":6465,"Ġitems":6466,"Ġarse":6467,"Ġsum":6468,"ilm":6469,"illing":6470,"Ġunw":6471,"Ġnovel":6472,"cap":6473,"osition":6474,"Ġoverall":6475,"ĠVer":6476,"Ġidentified":6477,"ventions":6478,"ointed":6479,"Ġworthy":6480,"Ġscientists":6481,"Ġexception":6482,"Ġdeny":6483,"Ġlimit":6484,"aniel":6485,"Ġcensorship":6486,"Ġpronoun":6487,"ĠLatin":6488,"BG":6489,"ees":6490,"Ð½":6491,"Ġ{":6492,"inv":6493,"Ġhang":6494,"Ġnut":6495,"Ġhack":6496,"ĠRob":6497,"reek":6498,"Ġspok":6499,"Ġproves":6500,"Ġfeelings":6501,"Ġincorpor":6502,"Ġ02":6503,"ĠGeneral":6504,"ĠHindu":6505,"Ser":6506,"[[":6507,"Ġwww":6508,"ĠTur":6509,"Ġarri":6510,"agement":6511,"Ġrum":6512,"ĠGold":6513,"Ġrelation":6514,"ĠVandalism":6515,"Ġdiscour":6516,"Ġfrustr":6517,"Ġabsurd":6518,"check":6519,"Because":6520,"Ġconvention":6521,"ĠLIF":6522,"Ġsubmission":6523,"ĠIranian":6524,"Ġdetermined":6525,"such":6526,"Ġtab":6527,"Ġwife":6528,"ilty":6529,"umm":6530,"ĠUs":6531,"ulture":6532,"Ġapology":6533,"Ġnotices":6534,"Ġphysics":6535,"Ġopposition":6536,"Ġzero":6537,"Ġta":6538,"onents":6539,"Ġburn":6540,"Ġfrank":6541,"Ġbeat":6542,"Ġbeaut":6543,"import":6544,"Ġstaff":6545,"ĠFAC":6546,"ĠOld":6547,"Ġjustified":6548,"Ġupset":6549,"Ġcreator":6550,"Ġpercent":6551,"Ġspecifies":6552,"spond":6553,"Ġvaluable":6554,"Ġassumed":6555,"BLP":6556,"ĠSmith":6557,"ĠSuper":6558,"62":6559,"Sock":6560,"border":6561,"inian":6562,"Ġdub":6563,"ĠTex":6564,"hey":6565,"ĠBell":6566,"ĠMel":6567,"aint":6568,"Ġkids":6569,"Ġjustification":6570,"uthor":6571,"Ġcheese":6572,"ĠUnless":6573,"Ġpublications":6574,"Ġpolitic":6575,"Ġwatchlist":6576,"Ġaffil":6577,"Ġcategor":6578,"ĠRichard":6579,"Ġcircumst":6580,"RHS":6581,"NHRHS":6582,"HH":6583,"TV":6584,"YI":6585,"core":6586,"wide":6587,"iament":6588,"ĠSar":6589,"aded":6590,"elf":6591,"riage":6592,"Ġneigh":6593,"uded":6594,"Ġchosen":6595,"Ġacts":6596,"Ġ80":6597,"Ġviolates":6598,"ĠPoland":6599,"Ġlede":6600,"Ġsatisfy":6601,"ĠGovernment":6602,"allenge":6603,"ĠAGAIN":6604,"Further":6605,"TER":6606,"],":6607,"ja":6608,"itect":6609,"Ġnav":6610,"igr":6611,"ĠMain":6612,"pping":6613,"Ġkid":6614,"ĠYet":6615,"âĢľ":6616,"Ġimply":6617,"ĠVan":6618,"Ġcovers":6619,"others":6620,"Ġ60":6621,"Ġcharge":6622,"ashion":6623,"Ġdiscovered":6624,"Ġobsess":6625,"ned":6626,"ws":6627,"xx":6628,"zil":6629,"Ġast":6630,"Ġbound":6631,"Ġbreed":6632,"ansion":6633,"Ġdark":6634,"ĠMer":6635,"ĠDist":6636,"ĠDYK":6637,"Ġaggress":6638,"Ġenvironment":6639,"Ġguitar":6640,"Ġperce":6641,"Ġtells":6642,"Ġ71":6643,"uhammad":6644,"ANNON":6645,"Prop":6646,"Ġtask":6647,"Ġmurder":6648,"Ġhur":6649,"Ġstage":6650,"ĠBC":6651,"uries":6652,"ĠFL":6653,"Ġunconstructive":6654,"Ġaccompl":6655,"osn":6656,"Ġ2002":6657,"Ġspeculation":6658,"Ġbothered":6659,"Ġmassive":6660,"ĠSHANNON":6661,"ridge":6662,"Ġlibel":6663,"Ġmixed":6664,"LEASE":6665,"PageBG":6666,"Ġfacilit":6667,"MainPageBG":6668,"Right":6669,"TA":6670,"cation":6671,"Ġincons":6672,"ĠBre":6673,"ĠPet":6674,"ĠHa":6675,"ĠNob":6676,"Ġdisruption":6677,"ĠEither":6678,"ĠJeff":6679,"Ġdidnt":6680,"Ġcritics":6681,"ĠRev":6682,"Ġmisrepresent":6683,"Ġcolon":6684,"airs":6685,"ossibly":6686,"Ġfails":6687,"ĠCheck":6688,"\"::::::":6689,"External":6690,"Ġplanet":6691,"Maybe":6692,"Ġangry":6693,"ĠFoundation":6694,"Verifiability":6695,"BN":6696,"ba":6697,"based":6698,"real":6699,"Ġcustom":6700,"Ġfirm":6701,"aman":6702,"Ġvillage":6703,"ntil":6704,"ĠJay":6705,"useum":6706,"about":6707,"ĠVol":6708,"Ġtelevision":6709,"Ġdescribes":6710,"Ġpaste":6711,"Ġlaunch":6712,"Ġintroduced":6713,"Ġmarked":6714,"ĠIslamic":6715,"ĠKorean":6716,"Ġscale":6717,"79":6718,"83":6719,"App":6720,"EM":6721,"Love":6722,"USE":6723,"gov":6724,"iography":6725,"va":6726,"ÑĤ":6727,"Ġoffered":6728,"Ġlingu":6729,"ĠTy":6730,"idge":6731,"ĠWizard":6732,"olly":6733,"Ġedition":6734,"Ġweap":6735,"ĠThomas":6736,"ĠKh":6737,"Ġoffended":6738,"Ġaccord":6739,"lessly":6740,"Ġredund":6741,"Ġbiggest":6742,"Ġfailure":6743,"ĠSomeone":6744,"Ġcontinuing":6745,"Ġformatting":6746,"Ġprivile":6747,"Ġproducts":6748,"Ġeconomic":6749,"Ġrejected":6750,"Ġterritory":6751,"ĠBYE":6752,"=)":6753,"FL":6754,"rast":6755,"uild":6756,"west":6757,"Ġip":6758,"inger":6759,"Ġmus":6760,"omer":6761,"Ġgraph":6762,"amily":6763,"ĠBer":6764,"ĠPen":6765,"iller":6766,"Ġunknown":6767,"ĠEs":6768,"umber":6769,"ĠOk":6770,"ached":6771,"ĠSocial":6772,"Ġletters":6773,"Ġindicates":6774,"Ġarchives":6775,"ĠWHO":6776,"Ġclarification":6777,"Ġessay":6778,"Ġdogs":6779,"protected":6780,"))":6781,"AIDS":6782,"SI":6783,"don":6784,"Ġmorning":6785,"Ġgreen":6786,"ĠWAS":6787,"ĠSen":6788,"Ġstuck":6789,"Ġunreliable":6790,"ĠLast":6791,"ishing":6792,"Ġattract":6793,"Ġuserbox":6794,"group":6795,"Ġprofile":6796,"Ġnationality":6797,"ĠGreece":6798,"ĠGeorg":6799,"Ġfrequently":6800,"Ġvolunte":6801,"Ġanimals":6802,"Ġdistinction":6803,"Ġcrazy":6804,"Ġequivalent":6805,"Mar":6806,"PIN":6807,"yl":6808,"ĠSign":6809,"ĠCOM":6810,"ĠBudd":6811,"ĠPH":6812,"ĠPreceding":6813,"Ġinformed":6814,"acity":6815,"Ġprison":6816,"Ġreviewing":6817,"ĠAfghan":6818,"Ġtravel":6819,"Comm":6820,"Ġdrive":6821,"Ġprinciples":6822,"Ġdeliberately":6823,"English":6824,"riticism":6825,"93":6826,"BA":6827,"press":6828,"sm":6829,"tle":6830,"Ġbesides":6831,"Ġdare":6832,"agiar":6833,"Ġelements":6834,"ĠTry":6835,"roject":6836,"unic":6837,"Ġsec":6838,"ĠMusic":6839,"aks":6840,"Ġexer":6841,"ĠRFC":6842,"ĠOur":6843,"ĠUse":6844,"Ġcommented":6845,"ĠVal":6846,"Ġrefuse":6847,"Ġbelieves":6848,"Ġinvited":6849,"Ġcaught":6850,"Ġthreatening":6851,"Ġmillions":6852,"Ġtechnology":6853,"ootball":6854,"73":6855,"oving":6856,"esh":6857,"aly":6858,"Ġinj":6859,"oms":6860,"hell":6861,"iger":6862,"ores":6863,"ĠEm":6864,"ĠKnow":6865,"eph":6866,"Ġdesire":6867,"ĠWeb":6868,"Ġcares":6869,"Ġpromise":6870,"Ġtrial":6871,"Ġhistorian":6872,"ĠBrown":6873,"Ġpressure":6874,"Ġacknowledge":6875,"81":6876,"Mer":6877,"NT":6878,"Ġ'''":6879,"eds":6880,"Ġreaction":6881,"ĠSu":6882,"unblock":6883,"ĠMah":6884,"ĠHy":6885,"Ġchapter":6886,"Ġcompare":6887,"idents":6888,"Ġfeels":6889,"notable":6890,"Ġphone":6891,"Ġprominent":6892,"Ġanswered":6893,"Ġcloser":6894,"Ġdescribing":6895,"Ġheads":6896,"inner":6897,"Ġverifiability":6898,"Ġsockpuppetry":6899,"Cheers":6900,"NG":6901,"ras":6902,"Î±":6903,"ctr":6904,"ĠWOR":6905,"Ġsell":6906,"outube":6907,"ikiproject":6908,"lets":6909,"Ġconsideration":6910,"ographic":6911,"Ġextent":6912,"Ġadministrative":6913,"Ġequally":6914,"Ġapologies":6915,"Ġintelligence":6916,"ĠQueen":6917,".-":6918,"iat":6919,"Ġtoe":6920,"Ġmail":6921,"Ġdictionary":6922,"also":6923,"Ġhair":6924,"Ġconditions":6925,"Ġwithd":6926,"ĠBesides":6927,"aka":6928,"urs":6929,"Ġrat":6930,"orted":6931,"ĠEX":6932,"Ġconsult":6933,"Ġchannel":6934,"Ġdesk":6935,"Inc":6936,"Ġ05":6937,"ĠAnyone":6938,"BeC":6939,"ĠCentral":6940,"Ġprinciple":6941,"Ġcommunication":6942,"Ġpurely":6943,"ĠCharles":6944,"Ġcomparison":6945,"pdf":6946,"Ġdisease":6947,"hot":6948,"mat":6949,"year":6950,"ĠaRe":6951,"athy":6952,"Ġporn":6953,"Ġmad":6954,"Ġhurt":6955,"Ġanon":6956,"Ġinser":6957,"otion":6958,"usiness":6959,"Ġbear":6960,"ĠPo":6961,"Ġprob":6962,"ĠFGG":6963,"Ġdoesnt":6964,"Ġproud":6965,"Ġsubjective":6966,"Ġstrateg":6967,"Ġhandle":6968,"Ġeffective":6969,"auSe":6970,"Getting":6971,"Ġfundamental":6972,"Ġambig":6973,"BeCauSe":6974,"ĠFGGT":6975,"!\"\"":6976,"El":6977,"gers":6978,"Ġaircraft":6979,"omy":6980,"ĠWal":6981,"ĠWil":6982,"ĠSure":6983,"ĠBaby":6984,"ested":6985,"ĠOUT":6986,"acks":6987,"plain":6988,"Ġmanaged":6989,"Ġpositions":6990,"Ġdirectory":6991,"Ġadmitted":6992,"Second":6993,"ĠGrand":6994,"Ġsubmitted":6995,"Ġreputable":6996,"Edgar":6997,"Ġdiag":6998,"NN":6999,"Te":7000,"met":7001,"pop":7002,"Ġbudd":7003,"Ġgar":7004,"ĠWind":7005,"igan":7006,"ĠGiven":7007,"Ġinformative":7008,"acre":7009,"notes":7010,"Ġproduced":7011,"Ġstatistics":7012,"Ġmerit":7013,"Ġqualify":7014,"Ġtypical":7015,"ĠNeutral":7016,"Ġracism":7017,"ĠCouncil":7018,"63":7019,"Great":7020,"SA":7021,"Support":7022,"VD":7023,"aism":7024,"iently":7025,"ini":7026,"information":7027,"aning":7028,"icago":7029,"ĠAh":7030,"Ġarrest":7031,"Ġconsequ":7032,"ifiable":7033,"Ġprose":7034,"ĠJul":7035,"Ġtalks":7036,"Ġcommitted":7037,"Ġenter":7038,"ĠAsia":7039,"Ġ03":7040,"Ġcrimes":7041,"Ġfixing":7042,"Ġpreferred":7043,"Ġrewritten":7044,"ĠObviously":7045,"Ġpublisher":7046,"Ġtraining":7047,"Ġcorrespond":7048,"MIN":7049,"Many":7050,"aedia":7051,"blog":7052,"burg":7053,"Ġmum":7054,"\"\").":7055,"cell":7056,"ado":7057,"Ġstreet":7058,"ĠBook":7059,"ĠMary":7060,"Ġathe":7061,"Ġship":7062,"Ġkn":7063,"Ġvague":7064,"Ġju":7065,"ĠGl":7066,"ĠEth":7067,"Ġquit":7068,"Ġquant":7069,"ologies":7070,"AHAHAH":7071,"Ġhighlight":7072,"uclear":7073,"CHAN":7074,"Ġestim":7075,"Ġpromoting":7076,"Ġessentially":7077,"Ġnormally":7078,"About":7079,"Ġlocked":7080,"ĠCongress":7081,"JPG":7082,"gal":7083,"sa":7084,"uan":7085,"world":7086,"itage":7087,"Ġpapers":7088,"Ġmaps":7089,"ĠHall":7090,"ĠHung":7091,"ĠHistor":7092,"ĠRon":7093,"ictional":7094,"Ġwriters":7095,"Ġexplo":7096,"Ġtitled":7097,"Ġminute":7098,"Ġorganisation":7099,"Ġbuy":7100,"Ġquoting":7101,"Ġoccasion":7102,"Ġcensor":7103,"Ġinserted":7104,"ĠActually":7105,"Ġoccurred":7106,"ĠDRINK":7107,"FUCKFUCKFUCKFUCKFUCKFUCKFUCKFUCKFUCKFUCKFUCKFUCKFUCKFUCKFUCKFUCK":7108,"Ġfacilitate":7109,"74":7110,"According":7111,"Keep":7112,"good":7113,"Ġly":7114,"including":7115,"Ġconventions":7116,"olar":7117,"ĠCOI":7118,"ĠBTW":7119,"Ġwasting":7120,"ĠFar":7121,"Ġmoves":7122,"Ġmathemat":7123,"Ġcooper":7124,"Ġcommand":7125,"aven":7126,"Ġrefs":7127,"ocide":7128,"ologist":7129,"neutral":7130,"Ġnorth":7131,"Ġoppose":7132,"Ġrape":7133,"Ġ1990":7134,"Ġbringing":7135,"Ġsubstantially":7136,"Ġmatches":7137,"ĠMUD":7138,"nnnnnnnnnnnnnnnnnnnnnnnnnnnnnnnnnnnnnnnnnnnnnnnnnnnnnnnnnnnnnnnn":7139,"Ġannoying":7140,"ALLY":7141,"95":7142,"Jan":7143,"National":7144,"rough":7145,"ĠØ":7146,"Ġsun":7147,"Ġwont":7148,"Ġreact":7149,"Ġgang":7150,"state":7151,"ĠCamp":7152,"ĠDan":7153,"Ġadult":7154,"ĠFair":7155,"Ġweird":7156,"emporary":7157,"ĠRu":7158,"artial":7159,"Ġreasonably":7160,"Ġadministration":7161,"ĠShow":7162,"Ġproduction":7163,"Ġrequirements":7164,"ĠLeague":7165,"Ġeffects":7166,"Ġpresence":7167,"Ġfeatures":7168,"Ġexpressed":7169,"Ġmethods":7170,"tytytytytytytytytytytytytytytytytytytytytytytytytytytytytytytyty":7171,"ĠPolicy":7172,"PH":7173,"Red":7174,"SO":7175,"last":7176,"may":7177,"Ñģ":7178,"Ġsouth":7179,"Ġbaby":7180,"Ġfant":7181,"Ġfringe":7182,"Ġna":7183,"Ġliar":7184,"again":7185,"ĠTw":7186,"Ġarm":7187,"ilst":7188,"ĠHuman":7189,"ĠFox":7190,"ĠNet":7191,"Ġalot":7192,"Ġintellect":7193,"ogue":7194,"Ġrelatively":7195,"ĠStreet":7196,"OVE":7197,"AHH":7198,"Ġdistingu":7199,"Ġ04":7200,"Ġscholarly":7201,"Ġforever":7202,"Ġpoorly":7203,"Ġmovies":7204,"Ġvoted":7205,"ĠAnti":7206,"Ġcalc":7207,"Ġtrivial":7208,"ĠArbCom":7209,"Dr":7210,"RO":7211,"crip":7212,"has":7213,"sourced":7214,"vi":7215,"Ġcard":7216,"icial":7217,"otic":7218,"\"\";":7219,"ĠWANT":7220,"ĠSur":7221,"ĠSuch":7222,"ĠMuhammad":7223,"uru":7224,"ppose":7225,"ĠHan":7226,"ĠGET":7227,"dern":7228,"Ġwhoever":7229,"ĠThree":7230,"ewish":7231,"Ġphen":7232,"Ġexpansion":7233,"organ":7234,"Ġ69":7235,"Ġkindly":7236,"Ġdistrict":7237,"Ġframe":7238,"Ġarchived":7239,"Ġartists":7240,"Ġintroduce":7241,"Ġera":7242,"reetings":7243,"Ġtraditional":7244,"Ġdemonstrate":7245,"ĠFrancis":7246,"ongratulations":7247,"HERO":7248,"ĠTexas":7249,"Ġbur":7250,"Ġcore":7251,"Ġlaz":7252,"Ġearn":7253,"ĠBLEA":7254,"ĠMiddle":7255,"ĠDar":7256,"ĠRoyal":7257,"âĢ¦":7258,"ĠUR":7259,"ĠViet":7260,"Ġemb":7261,"Ġdefinitions":7262,"Ġpassage":7263,"Ġinsults":7264,"Ġhoping":7265,"Ġviolence":7266,"ĠKNOW":7267,"Ġcasual":7268,"CHANHERO":7269,"ĠBLEACHANHERO":7270,"101":7271,"lt":7272,"lines":7273,"reens":7274,"ĠCD":7275,"elly":7276,"Ġproved":7277,"rawn":7278,"Ġoverw":7279,"ugos":7280,"Ġstarts":7281,"Ġblame":7282,"Ġgreatest":7283,"Ġregarded":7284,"Ġkinds":7285,"ussian":7286,"Ġnominate":7287,"rison":7288,"Ġpresum":7289,"????????":7290,"Ġdistinct":7291,"Ġtrivia":7292,"Ġsanction":7293,"OST":7294,"mind":7295,"oes":7296,"Ã¶":7297,"Ġtutorial":7298,"Ġcow":7299,"Ġretain":7300,"ika":7301,"igation":7302,"ĠBattle":7303,"ulf":7304,"Ġrisk":7305,"abb":7306,"Ġpreced":7307,"Ġhadn":7308,"Ġparam":7309,"rugg":7310,"ĠHebrew":7311,"Ġdecent":7312,"Ġanswers":7313,"2008":7314,"ĠAIDSAIDS":7315,"Ġprimarily":7316,"Ġethnicity":7317,"ĠCHE":7318,"Ġselecting":7319,"ĠCenter":7320,"sequent":7321,"FFFFFF":7322,"Ġconservative":7323,"Ġsir":7324,"ati":7325,"itarian":7326,"Ġbank":7327,"iced":7328,"ĠSC":7329,"semb":7330,"cher":7331,"Ġdeem":7332,"ĠPre":7333,"Ġrational":7334,"ĠLou":7335,"Ġque":7336,"ĠUp":7337,"ribes":7338,"ĠVict":7339,"ĠChris":7340,"ĠSociety":7341,"ESE":7342,"Ġgotten":7343,"Ġstanding":7344,"Ġcharges":7345,"Ġlegis":7346,"ĠBefore":7347,"Israel":7348,"Ġrespected":7349,"Notability":7350,"Ġquotation":7351,"dden":7352,"Ġtechnically":7353,"Ġcontained":7354,"ĠRepublican":7355,"Ġstubs":7356,"Ġhorse":7357,"ĠHopefully":7358,"Ġconformance":7359,"RAPCRAPCRAPCRAPCRAPCRAPCRAPCRAPCRAPCRAPCRAPCRAPCRAPCRAPCRAPCRAPC":7360,"Perhaps":7361,"ĠAzerbai":7362,"published":7363,"British":7364,"Happy":7365,"MS":7366,"SR":7367,"date":7368,"eg":7369,"nam":7370,"Ġcivility":7371,"Ġmir":7372,"agged":7373,"unity":7374,"Ġsup":7375,"rav":7376,"ĠLin":7377,"ardless":7378,"arted":7379,"arer":7380,"Ġtrip":7381,"ocal":7382,"ANI":7383,"ĠIsland":7384,"Ġuntr":7385,"AAA":7386,"2007":7387,"Ġcleanup":7388,"Ġtables":7389,"Ġcorpor":7390,"Ġliterally":7391,"Ġselected":7392,"ĠSpecial":7393,"ĠGOD":7394,"Ġincreasing":7395,"Ġdisgust":7396,"ĠABOUT":7397,"rong":7398,"Ùħ":7399,"atu":7400,"Ġbranch":7401,"omp":7402,"Ġarms":7403,"Ġ()":7404,"iring":7405,"soft":7406,"Ġchallenge":7407,"Ġrelating":7408,"ĠVery":7409,"ĠVirgin":7410,"Ġwhereas":7411,"Ġwrites":7412,"Ġlets":7413,"Ġbrow":7414,"Ġbrand":7415,"Ġimprovements":7416,"ĠCommon":7417,"Ġinnocent":7418,"ollow":7419,"yal":7420,"Ġblo":7421,"Ġfederal":7422,"Ġom":7423,"ĠPerson":7424,"ĠMont":7425,"iler":7426,"ĠHill":7427,"Ġhearing":7428,"Ġdeletions":7429,"Ġtalked":7430,"cape":7431,"ĠKar":7432,"ĠKhan":7433,"tythe":7434,"Ġnowhere":7435,"Ġgranted":7436,"ĠDef":7437,"Ġ68":7438,"Ġbehalf":7439,"Ġhttps":7440,"Ġapproved":7441,"Ġholding":7442,"Ġlibrary":7443,"OOOOOOOO":7444,"Ð¾Ð":7445,"ĠEVERY":7446,"Ġrelevance":7447,"Ġcircumstances":7448,"Ġredundant":7449,"ugoslav":7450,"tythewhite":7451,"Chan":7452,"Rel":7453,"TIC":7454,"Template":7455,"claim":7456,"source":7457,"Ġoh":7458,"Ġgas":7459,"ĠAG":7460,"road":7461,"Ġsuit":7462,"ustration":7463,"Ġunrelated":7464,"Ġven":7465,"inking":7466,"inding":7467,"ideos":7468,"Ġprejud":7469,"iley":7470,"Ġtemper":7471,"Ġconcent":7472,"rence":7473,"Ġbadly":7474,"Ġhonor":7475,"\":::":7476,"Ġadvertise":7477,"Ġsteps":7478,"Ġbalanced":7479,"ĠBelow":7480,"ĠMoreover":7481,"Ġjudgement":7482,"Ġunlikely":7483,"Ġloser":7484,"ĠConstitution":7485,"Mattythewhite":7486,"Ġdedicated":7487,"Every":7488,"Sim":7489,"ye":7490,"Ġ!!":7491,"Ġcensus":7492,"ender":7493,"Ġsudden":7494,"ĠDiv":7495,"Ġalph":7496,"Ġadds":7497,"Ġresource":7498,"ferenced":7499,"Ġoffense":7500,"Ġcoinc":7501,"Ġdefending":7502,"Ġ72":7503,"Ġhighest":7504,"141":7505,"Ġvariety":7506,"ĠGermans":7507,"Ġsmaller":7508,"ĠScot":7509,"Ġteams":7510,"Ġincrease":7511,"ĠAcadem":7512,"Ġphenomen":7513,"his":7514,"ker":7515,"ugu":7516,"yo":7517,"isan":7518,"aters":7519,"Ġdude":7520,"Ġnick":7521,"ĠTer":7522,"thesis":7523,"ĠBang":7524,"urally":7525,"ĠOut":7526,"ĠJones":7527,"ĠJUST":7528,"Ġpointless":7529,"avy":7530,"Ġcites":7531,"Ġservices":7532,"ategories":7533,"ISH":7534,"ĠbitchMattythewhite":7535,"ĠProt":7536,"Ġnewspapers":7537,"ĠDELE":7538,"Ġrenamed":7539,"Ġwestern":7540,"ĠJoseph":7541,"ĠTurks":7542,"Br":7543,"Cons":7544,"history":7545,"ufact":7546,"àº":7547,"Ġball":7548,"Ġhidden":7549,"Ġdat":7550,"ota":7551,"iah":7552,"Ġprem":7553,"Ġcommenting":7554,"Ġowned":7555,"ruit":7556,"Ġrefused":7557,"ologists":7558,"Ġdefense":7559,"Ġrealise":7560,"anner":7561,"Ġ75":7562,"spacing":7563,"issions":7564,"ĠBeat":7565,"Ġopened":7566,"Ġrepresents":7567,"Ġconclusions":7568,"ĠMacedonia":7569,"!!!!!!!!!!!!!!!!!!!!!!!!!!!!!!!!!!!!!!!!!!!!!!!!!!!!!!!!!!!!!!!!!!!!!!!!!!!!!!!!!!!!!!!!!!!!!!!!!!!!!!!!!!!!!!!!!!!!!!!!!!!!!!!!":7570,"Ġoccupation":7571,"ĠMartin":7572,"Ġmachine":7573,"Ġdialect":7574,"Most":7575,"Non":7576,"ek":7577,"ean":7578,"Ġ<":7579,"Ġwrest":7580,"Ġpath":7581,"Ġfashion":7582,"icide":7583,"lymp":7584,"agan":7585,"ĠTor":7586,"vertical":7587,"ĠMass":7588,"ĠFederal":7589,"ĠEastern":7590,"abs":7591,"Ġevident":7592,"Ġresist":7593,"Ġwhenever":7594,"Ġserved":7595,"Ġdecades":7596,"Ġscope":7597,"Ġsymp":7598,"Ġ76":7599,"Ġcauses":7600,"space":7601,"Ġtransfer":7602,"Ġconstant":7603,"Ġproperty":7604,"Ġaccurately":7605,"Ġspeaks":7606,"Ġspeakers":7607,"Ġdiffs":7608,"Ġparticipation":7609,"Ġmental":7610,"Ġjoined":7611,"Ġharassing":7612,"ĠArabic":7613,"Ġdestroyed":7614,"Ġpuppetry":7615,"Ġgrav":7616,"________________________________":7617,"Ġsoldiers":7618,"Ġvictims":7619,"Ġinvented":7620,"Anti":7621,"Par":7622,"count":7623,"xford":7624,"onent":7625,"Ġcert":7626,"Ġopt":7627,"articles":7628,"usively":7629,"ĠWood":7630,"ador":7631,"Ġsecurity":7632,"ĠPA":7633,"Ġshock":7634,"ĠFire":7635,"ĠOper":7636,"ĠUntil":7637,"perial":7638,"Ġguilty":7639,"Ġspamming":7640,"LLLL":7641,"alem":7642,"oking":7643,"Ġconstitution":7644,"ashed":7645,"Ġfiled":7646,"ĠâĨĴ":7647,"Ġtranslated":7648,"ĠClass":7649,"warring":7650,"Ġapplication":7651,"ĠKorea":7652,"Ġheavy":7653,"Ġacknowledged":7654,"EC":7655,"PL":7656,"bb":7657,"nes":7658,"Ġcook":7659,"Ġpra":7660,"Ġmount":7661,"Ġmaster":7662,"ĠSBS":7663,"ĠCre":7664,"ĠPop":7665,"Ġexcess":7666,"Ġuniverse":7667,"Ġrot":7668,"ĠNigger":7669,"Ġjustice":7670,"ĠRFA":7671,"ogy":7672,"OUR":7673,"arning":7674,"Ġoblig":7675,"Ġpowerful":7676,"Ġpieces":7677,"THE":7678,"Ġexpression":7679,"ĠEncyclopedia":7680,"Ġreturned":7681,"Ġdeclined":7682,"Ġmedicine":7683,"Ġspoken":7684,"Ġfrankly":7685,"Sockpuppet":7686,"da":7687,"sim":7688,"âĪ":7689,"although":7690,"Ġreform":7691,"oma":7692,"Ġnotification":7693,"aying":7694,"ĠSa":7695,"admin":7696,"opher":7697,"andon":7698,"Ġunit":7699,"Ġrail":7700,"ĠRyan":7701,"ĠEdu":7702,"Ġpreser":7703,"ĠKen":7704,"inton":7705,"Ġfactually":7706,"Ġinval":7707,"Ġherself":7708,"ĠReal":7709,"Ġroad":7710,"Ġleads":7711,"Ġtesting":7712,"Ġbigger":7713,"Ġ08":7714,"Ġsurr":7715,"Ġdiscrim":7716,"Ġhistoric":7717,"Ġcenter":7718,"ILLION":7719,"ĠFucking":7720,"Ġfinish":7721,"ĠHarry":7722,"Ġalbums":7723,"ĠDisney":7724,"Ġvoting":7725,"Ġprinted":7726,"ĠCompany":7727,"Ġrollback":7728,"Ġprecisely":7729,"Ġdubious":7730,"hab":7731,"kin":7732,"inder":7733,"Ġpic":7734,"Ġmate":7735,"ĠAC":7736,"ĠScient":7737,"ĠMS":7738,"rive":7739,"Ġbytes":7740,"people":7741,"udes":7742,"ensed":7743,"Ġbacked":7744,"Ġplat":7745,"ahoo":7746,"Ġquestionable":7747,"Ġdecisions":7748,"venue":7749,"Ġformed":7750,"Ġraise":7751,"Ġracial":7752,"Ġexplanations":7753,"Ġmeeting":7754,"Ġmarried":7755,"Ġswitch":7756,"Ġproductive":7757,"Ġassociation":7758,"Ġdaughter":7759,"Ġanimal":7760,"ĠRemember":7761,"Ġintelligent":7762,"Ġchallenged":7763,"Ġcelebr":7764,"Ġsleep":7765,"ELL":7766,"ds":7767,"lol":7768,"rome":7769,"Ġtro":7770,"Ġtill":7771,"Ġsen":7772,"Ġfiction":7773,"ĠTony":7774,"ĠTwo":7775,"ĠSl":7776,"Ġrepublic":7777,"REE":7778,"Read":7779,"Ġdiscred":7780,"Ġindicated":7781,"Ġdealt":7782,"ĠMcC":7783,"Ġtradition":7784,"penis":7785,"Ġintentions":7786,"Ġnarrow":7787,"ĠKoso":7788,"Ġamazing":7789,"Ġobscure":7790,"eth":7791,"po":7792,"uated":7793,"Ġsland":7794,"Ġwise":7795,"atter":7796,"Ġpack":7797,"Ġmurd":7798,"Ġfish":7799,"otes":7800,"Ġeast":7801,"ĠAv":7802,"aya":7803,"ĠMess":7804,"Ġabst":7805,"Ġpolite":7806,"ĠChicago":7807,"Ġdiffer":7808,"Ġsimpl":7809,"because":7810,"Ġcounty":7811,"123":7812,"Ġharrass":7813,"2009":7814,"Ġoccas":7815,"biased":7816,"ĠFlor":7817,"Ġassessment":7818,"Administrators":7819,"Ġdeclared":7820,"ĠPakistan":7821,"ĠVANDALISM":7822,"!@":7823,"Mr":7824,"erve":7825,"Ġisnt":7826,"Ġemer":7827,"ĠWork":7828,"Ġcong":7829,"Ġsequ":7830,"ĠBay":7831,"ĠLog":7832,"Ġlect":7833,"Ġleague":7834,"ĠKe":7835,"Ġsales":7836,"orders":7837,"Ġplanning":7838,"Ġeverywhere":7839,"ĠTHEY":7840,"Ġscene":7841,"Ġargued":7842,"Ġallowing":7843,"Ġseconds":7844,"Ġauthorities":7845,"Ġrequirement":7846,"Ġobjects":7847,"Ġsorts":7848,"Ġchildish":7849,"ĠHAAHH":7850,"ski":7851,"ĠColl":7852,"ĠADMIN":7853,"ĠJackson":7854,"Ġmemory":7855,"SC":7856,"cision":7857,"cript":7858,"den":7859,"dated":7860,"mir":7861,"mond":7862,"rate":7863,"wa":7864,"itter":7865,"Ġcla":7866,"enry":7867,"Ġforg":7868,"ĠBh":7869,"ĠDutch":7870,"Ġtrick":7871,"icket":7872,"Ġsport":7873,"Ġentity":7874,"ĠSock":7875,"Ġinvite":7876,"Ġscrew":7877,"Ġincred":7878,"Ġextensive":7879,"Ġflow":7880,"Ġautob":7881,"Ġsockpuppets":7882,"Ġtyping":7883,"ĠGreeks":7884,"ĠAbout":7885,"ĠONE":7886,"specific":7887,"Ġprograms":7888,"Ġthousand":7889,"Ġcondition":7890,"ĠAdditionally":7891,"Ġvehicle":7892,"91":7893,"DE":7894,"life":7895,"Ġwp":7896,"Ġfictional":7897,"alo":7898,"ication":7899,"Ġstrugg":7900,"ĠCorn":7901,"ĠYAAAA":7902,"ĠYAAA":7903,"ĠLife":7904,"!!!!'":7905,"Ġmanual":7906,"ocol":7907,"Ġdefam":7908,"ugs":7909,"Ġviewed":7910,"azon":7911,"Ġcorrecting":7912,"Ġ48":7913,"Ġdownload":7914,"Ġstats":7915,"Ġpersist":7916,"Ġidiots":7917,"ĠBlue":7918,"Ġforums":7919,"fobox":7920,"Ġprocedure":7921,"Ġdishonest":7922,"!@!!!!!!":7923,"ĠHAAHHAHAHAH":7924,"His":7925,"ns":7926,"Ġpadding":7927,"Ġoptions":7928,"Ġreversion":7929,"Ġelement":7930,"ĠSlo":7931,"ĠSection":7932,"ipal":7933,"olve":7934,"ĠBoo":7935,"ilarly":7936,"akh":7937,"ĠNick":7938,"ĠLar":7939,"ureauc":7940,"allery":7941,"assing":7942,"Ġregional":7943,"Ġfounded":7944,"Ġembar":7945,"ĠOrthodox":7946,"Ġmerits":7947,"Ġassumption":7948,"Ġremaining":7949,"Ġwikil":7950,"uzz":7951,"Ġattributed":7952,"Ġmisunderstanding":7953,"Har":7954,"dy":7955,"official":7956,"pedia":7957,"Ġ//":7958,"ref":7959,"era":7960,"Ġwitness":7961,"athan":7962,"ano":7963,"Ġnations":7964,"ĠWR":7965,"ĠAmb":7966,"Ġash":7967,"ĠBa":7968,"ĠBoy":7969,"ĠBosn":7970,"ĠPLEASE":7971,"ĠJon":7972,"ĠJournal":7973,"osis":7974,"Ġgold":7975,"Ġsubsequent":7976,"ĠInter":7977,"Ġcoordin":7978,"Ġvandalising":7979,"Ġregret":7980,"eeee":7981,"Ġinstitution":7982,"Ġinteract":7983,"Ġclosing":7984,"axim":7985,"ĠChristmas":7986,"ĠMarx":7987,"ĠLeban":7988,"Ġcomplaints":7989,"iably":7990,"ĠContribs":7991,"Ġfootnote":7992,"Ġfrequ":7993,"DYK":7994,"Ġfilled":7995,"Ġdropdown":7996,"rrrr":7997,"ĠHELL":7998,"Ġpunish":7999,"Ġaudio":8000,"ĠcheeseI":8001,"ĠDistrict":8002,"Ġaccordance":8003,"Bl":8004,"Ob":8005,"Oppose":8006,"Under":8007,"YM":8008,"bell":8009,"garian":8010,"ji":8011,"uis":8012,"uations":8013,"Ñĥ":8014,"Ġsister":8015,"ato":8016,"Ġcart":8017,"ĠSW":8018,"Ġsevere":8019,"ĠPut":8020,"editing":8021,"ĠLee":8022,"ĠStill":8023,"Ġgrowing":8024,"Ġplagiar":8025,"Ġawards":8026,"Ġ06":8027,"Ġsolve":8028,"Ġâľ":8029,"Ġcenturies":8030,"Ġupdating":8031,"Ġmeantime":8032,"Ġconvince":8033,"Ġdocumentation":8034,"Ġ;-)":8035,"ĠIMO":8036,"Ġgirls":8037,"ĠArmenian":8038,"ĠJudaism":8039,"ĠARTIC":8040,"Ġdozen":8041,"Ġconvinced":8042,"Ġoverwhel":8043,"OG":8044,"Other":8045,"UK":8046,"links":8047,"produ":8048,"rics":8049,"ugg":8050,"ÃŃ":8051,"ero":8052,"Ġwall":8053,"encies":8054,"ications":8055,"Ġnom":8056,"Ġinternal":8057,"\"\"...":8058,"enth":8059,"Ġeight":8060,"ĠTime":8061,"hehe":8062,"ĠSol":8063,"unny":8064,"ĠCat":8065,"Ġdoll":8066,"ĠPE":8067,"akers":8068,"ĠHaw":8069,"ĠNothing":8070,"ĠRet":8071,"raham":8072,"ĠLIKE":8073,"ĠUr":8074,"abled":8075,"ĠâĢİ":8076,"Ġcold":8077,"archive":8078,"Ġverb":8079,"Ġownership":8080,"Ġorigins":8081,"Ġideology":8082,"Ġendorse":8083,"129":8084,"Ġdisturb":8085,"Ġsurvey":8086,"2005":8087,"ĠLeg":8088,"Ġthreatened":8089,"Ġarchitect":8090,"Ġpromoted":8091,"Ġreceiving":8092,"Ġresponses":8093,"Ġblanking":8094,"Ġfavorite":8095,"Ġdaily":8096,"ĠMacedonian":8097,"Ġannounced":8098,"BTW":8099,"ÙĬ":8100,"à¯":8101,"rec":8102,"Ġwild":8103,"char":8104,"ĠBal":8105,"ĠYear":8106,"Ġalive":8107,"ĠGar":8108,"ummer":8109,"Ġfab":8110,"abal":8111,"Ġactor":8112,"ANK":8113,"Its":8114,"Ġflight":8115,"Although":8116,"Ġbreaking":8117,"Ġrepresented":8118,"Ġapologise":8119,"Ġdenial":8120,"Comment":8121,"Ġindependence":8122,"Ġelections":8123,"ĠSHOULD":8124,"Check":8125,"Best":8126,"David":8127,"full":8128,"iy":8129,"rich":8130,"since":8131,"ora":8132,"alse":8133,"Ġgather":8134,"imp":8135,"iments":8136,"ami":8137,"Ġstring":8138,"Ġstraw":8139,"ĠProp":8140,"iry":8141,"Ġunus":8142,"ĠTheir":8143,"ĠRiver":8144,"ĠRIGHT":8145,"Ġagrees":8146,"ables":8147,"Ġserves":8148,"Ġinstances":8149,"Ġ500":8150,"Ġprompt":8151,"Ġinvolving":8152,"Ġpretend":8153,"2011":8154,"2012":8155,"Ġbroke":8156,"Ġlimits":8157,"ĠGroup":8158,"EEP":8159,"ĠResearch":8160,"Ġperformance":8161,"Ġcalm":8162,"Ġvirtually":8163,"Ġbeautiful":8164,".âĢĶ":8165,"Ag":8166,"LOL":8167,"PE":8168,"TF":8169,"ao":8170,"bour":8171,"iÄ":8172,"main":8173,"Ð»":8174,"Ġwel":8175,"ena":8176,"alin":8177,"Ġnipple":8178,"Ġinline":8179,"usalem":8180,"Ġela":8181,"ĠPower":8182,"ĠMike":8183,"Ġabusing":8184,"Ġunjust":8185,"Ġcontrast":8186,"ĠEV":8187,"formed":8188,"Ġsports":8189,"ĠAndrew":8190,"ĠDeath":8191,"https":8192,"ĠForce":8193,"atted":8194,"Ġautom":8195,"ĠConflict":8196,"Ġfigured":8197,"Ġmodified":8198,"Ġpractices":8199,"United":8200,"evin":8201,"****":8202,"ĠONLY":8203,"Ġminimum":8204,"Ġarrogant":8205,"Ġlazy":8206,"ĠCHEESE":8207,"Af":8208,"King":8209,"pers":8210,"Ġpig":8211,"Ġdream":8212,"ĠIRC":8213,"Ġnerd":8214,"uty":8215,"ĠAp":8216,"igm":8217,"ĠBur":8218,"ĠMem":8219,"quette":8220,"Ġadequ":8221,"ĠNight":8222,"ĠNOW":8223,"ĠRad":8224,"ritical":8225,"...)":8226,"Ġreferencing":8227,"Ġrecre":8228,"Ġclimate":8229,"ĠEngine":8230,"Ġleaders":8231,"ĠFeatured":8232,"ĠNotability":8233,"Ġrevisions":8234,"Ġredirected":8235,"Ġcarried":8236,"Ġconflicts":8237,"Ġdenied":8238,"Ġmarriage":8239,"Ġpermitted":8240,"EEEE":8241,"Ġsubmit":8242,"Ġinterviews":8243,"Ġconstitute":8244,"Ġheavily":8245,"ĠSerbian":8246,"Images":8247,"Sure":8248,"cat":8249,"friend":8250,"host":8251,"jo":8252,"lar":8253,"low":8254,"party":8255,"ÙĪ":8256,"Ġsom":8257,"itative":8258,"Ġbed":8259,"Ġbag":8260,"ension":8261,"arant":8262,"Ġreinst":8263,"Ġisland":8264,"lla":8265,"Ġgross":8266,"uting":8267,"Ġforb":8268,"heme":8269,"ĠWay":8270,"throp":8271,"Ġseperate":8272,"ĠDVD":8273,"ĠFore":8274,"Ġvideos":8275,"Ġpov":8276,"ĠLong":8277,"ĠOs":8278,"ĠOxford":8279,"isms":8280,"Ġtrade":8281,"Ġplacing":8282,"Ġregularly":8283,"Ġfuckin":8284,"Ġhero":8285,"web":8286,"Ġsupporters":8287,"Ġwarming":8288,"ajaj":8289,"Ġends":8290,"Ġ09":8291,"ART":8292,"respect":8293,"Ġdisagreement":8294,"Ġrecognition":8295,"Ġfinancial":8296,"ĠFACT":8297,"Ġliked":8298,"Ġreversions":8299,"ĠSteve":8300,"Ġinvalid":8301,"gate":8302,"iations":8303,"och":8304,"oral":8305,"Ġbreat":8306,"ĠWars":8307,"ĠWatch":8308,"ĠSir":8309,"Ġ\"\"...":8310,"ĠBAN":8311,"ĠPart":8312,"ĠMur":8313,"ĠFact":8314,"antage":8315,"ĠYeah":8316,"ieve":8317,"rac":8318,"ĠLink":8319,"ĠEU":8320,"Ġoutcome":8321,"Ġmanufact":8322,"ache":8323,"guy":8324,"RED":8325,"ava":8326,"onto":8327,"References":8328,"192":8329,"aza":8330,"Ġbiographical":8331,"Ġdescend":8332,"Ġcolors":8333,"Ġlogging":8334,"Ġofficer":8335,"Ġdiscover":8336,"Ġundue":8337,"ĠLIVE":8338,"Ġportion":8339,"Ġteacher":8340,"Ġreduce":8341,"AKE":8342,"Ġintegrity":8343,"ĠBrazil":8344,"Ġdropped":8345,"!\"":8346,"Hmm":8347,"Su":8348,"Was":8349,"hl":8350,"iot":8351,"master":8352,"parent":8353,"Ġ..":8354,"Ġ~~~~":8355,"esome":8356,"utive":8357,"owd":8358,"ĠSant":8359,"unction":8360,"ĠCup":8361,"ĠBack":8362,"ĠPC":8363,"ĠPublic":8364,"ĠMove":8365,"ĠGib":8366,"ĠEnd":8367,"Ġadminship":8368,"wealth":8369,"ĠAsian":8370,"Ġbits":8371,"Ġscr":8372,"Ġstrike":8373,"Ġ07":8374,"Ġconnected":8375,"ennis":8376,"ĠParis":8377,"Ġcorrection":8378,"ĠMetal":8379,"Ø§ÙĦ":8380,"Ġenemy":8381,"GB":8382,"bul":8383,"cr":8384,"car":8385,"gina":8386,"sign":8387,"Ã³":8388,"onian":8389,"ita":8390,"Ġbiz":8391,"Ġcorn":8392,"Ġmuslim":8393,"Ġovert":8394,"Ġhiding":8395,"Ġanarch":8396,"Ġital":8397,"Ġnotion":8398,"Ġdece":8399,"ĠCap":8400,"ĠPM":8401,"ĠMiss":8402,"ilver":8403,"ĠHas":8404,"ĠHence":8405,"ĠJoe":8406,"ongol":8407,"Ġacqu":8408,"vertheless":8409,"Ġparap":8410,"Ġposter":8411,"Ġcontentious":8412,"ĠDoing":8413,"Ġcontrolled":8414,"Ġtries":8415,"Ġengaging":8416,"Ġturns":8417,"Ġkilling":8418,"Ġportray":8419,"sky":8420,"Question":8421,"Ġblogs":8422,"Ġexpertise":8423,"Ġfalls":8424,"Ġencouraged":8425,"Ġcomprehensive":8426,"Ġamerican":8427,"ĠLIFE":8428,"ĠAfghanistan":8429,"after":8430,"bian":8431,"have":8432,"rated":8433,"Ġturk":8434,"onder":8435,"eries":8436,"Ġbla":8437,"Ġbtw":8438,"ipped":8439,"Ġdear":8440,"ĠHard":8441,"rix":8442,"Ġsoci":8443,"ĠGal":8444,"ĠEp":8445,"ĠOl":8446,"abase":8447,"ails":8448,"avis":8449,"Ġissued":8450,"ĠAsh":8451,"Ġruining":8452,"Ġpublicly":8453,"Ġprotecting":8454,"Ġparticipants":8455,"ĠColumb":8456,"Ġprofessor":8457,"Ġpotentially":8458,"Ġpublishing":8459,"Ġroman":8460,"Ġhypoth":8461,"Ġcommunicate":8462,"Ġbroadcast":8463,"iveness":8464,"Ġadopted":8465,"Ġindefinitely":8466,"Ġtactics":8467,"Ġobtained":8468,"phaned":8469,"ĠVictor":8470,"Ben":8471,"West":8472,"bag":8473,"gor":8474,"iro":8475,"iel":8476,"Ġtheore":8477,"Ġwanna":8478,"lem":8479,"asel":8480,"assion":8481,"stop":8482,"unciation":8483,"ĠBad":8484,"ĠBob":8485,"ĠDC":8486,"Ġcomfort":8487,"ĠYugoslav":8488,"ĠNon":8489,"Ġdisreg":8490,"odies":8491,"Ġsubse":8492,"ribute":8493,"Ġoverview":8494,"ĠVe":8495,"Ġvandalise":8496,"Ġgender":8497,"eresting":8498,"gery":8499,"Ġcaption":8500,"ĠShall":8501,"Ġmoral":8502,"Ġfourth":8503,"âĢĿ.":8504,"Ġqualified":8505,"Ġdepth":8506,"Ġholds":8507,"Ġbreach":8508,"Ġhyper":8509,"Ġsignificantly":8510,"Ġprofession":8511,"Ġoperation":8512,"consider":8513,"Ġsuspected":8514,"Ġthreads":8515,"Ġdemonstrated":8516,"trans":8517,"ĠPalestinian":8518,"Ġsolely":8519,"Ġpermanent":8520,"roversial":8521,"Ġtaught":8522,"Ġintellectual":8523,".(":8524,";\"\"|":8525,"Gr":8526,"bage":8527,"cour":8528,"oided":8529,"||":8530,"lee":8531,"Ġfell":8532,"ĠSU":8533,"ĠSon":8534,"Ġconven":8535,"ĠCIA":8536,"ĠHome":8537,"ĠFin":8538,"ĠLy":8539,"Ġseeking":8540,"iceboard":8541,"Ġwanting":8542,"icking":8543,"Ġcommons":8544,"ĠRequest":8545,"ĠAsk":8546,"Ġmission":8547,"Ġfounder":8548,"Ġreviewer":8549,"......":8550,"oked":8551,"when":8552,"ORT":8553,"Ġextrem":8554,"ĠProfess":8555,"177":8556,"168":8557,"Ġlawyer":8558,"bye":8559,"Ġfalsely":8560,"Ġnewsletter":8561,"Ġapproval":8562,"uropean":8563,"Ġterrible":8564,"Ġsucceed":8565,"ĠPlus":8566,"Ġreplacement":8567,"Ġresponsibility":8568,"Ġerrone":8569,"Ġpicked":8570,"Ġapplicable":8571,"Ġlicensing":8572,"Ġmalicious":8573,"Ġterminology":8574,"WE":8575,"hop":8576,"ront":8577,"youtube":8578,"ĠÅ":8579,"Ġtiny":8580,"Ġsight":8581,"Ġbully":8582,"Ġpunk":8583,"Ġmast":8584,"Ġflo":8585,"Ġdial":8586,"arre":8587,"ches":8588,"ĠBan":8589,"ura":8590,"ĠHERE":8591,"ĠDick":8592,"Ġunits":8593,"rah":8594,"Ġ1000":8595,"Ġdislike":8596,"ĠLive":8597,"ĠElect":8598,"iana":8599,"osing":8600,"acob":8601,"active":8602,"INE":8603,"Ġproblematic":8604,"114":8605,"okes":8606,"Ġending":8607,"Ġintervention":8608,"Ġauthent":8609,"Ġextended":8610,"Ġcommunist":8611,"146":8612,"Ġmerging":8613,"Ġapprox":8614,"ĠPrince":8615,"Ġmotives":8616,"warrior":8617,"Ġurge":8618,"Ġphilosoph":8619,"ĠReliable":8620,"Ġwindow":8621,"iques":8622,"ĠUkraine":8623,"ĠUkrainian":8624,"icrosoft":8625,"Ġemphasis":8626,"ĠFROM":8627,"Ġtonight":8628,"Ap":8629,"DS":8630,"dr":8631,"person":8632,"ĨĲ":8633,"Ġsending":8634,"Ġcrack":8635,"Ġpil":8636,"esy":8637,"ĠCast":8638,"ĠFBI":8639,"Ġkidd":8640,"ĠGIVE":8641,"raction":8642,"ucky":8643,"Ġassure":8644,"INGS":8645,"Ġaddressing":8646,"istrator":8647,"ĠISBN":8648,"Ġdirector":8649,"Ġpolitically":8650,"Ġharsh":8651,"Ġnationalist":8652,"Ġsubstance":8653,"ĠClub":8654,"OPLE":8655,"Ġfresh":8656,"Ġamounts":8657,"ĠWIKI":8658,"Ġhorrible":8659,"Ġsettled":8660,"Ġunreason":8661,"Christian":8662,"ampionship":8663,"Ġprepared":8664,"ĠURL":8665,"Ġuntrue":8666,"ĠFlorida":8667,"Ġfabric":8668,"133":8669,"Cle":8670,"Col":8671,"LONG":8672,"Nice":8673,"Tube":8674,"dot":8675,"ĠÏ":8676,"Ġtree":8677,"atus":8678,"Ġbureauc":8679,"Ġnazi":8680,"Ġnuclear":8681,"Ġrein":8682,"Ġeg":8683,"Ġeats":8684,"ĠTell":8685,"ikes":8686,"ĠAward":8687,"room":8688,"igious":8689,"ĠSource":8690,"ĠBank":8691,"eltic":8692,"ĠDun":8693,"ĠDog":8694,"Ġbutt":8695,"Ġrant":8696,"ĠNext":8697,"Ġjack":8698,"ĠLA":8699,"ĠOpen":8700,"Ġchron":8701,"Ġcompleted":8702,"acific":8703,"ordan":8704,"Ġplans":8705,"Ġspin":8706,"ĠOrder":8707,"Ġruns":8708,"Ġquotations":8709,"Ġpassing":8710,"Ġdepend":8711,"Which":8712,"Ġrepresentative":8713,"Ġcomplaining":8714,"Ġcleaned":8715,"Ġ1980":8716,"Ġtrolls":8717,"ILIP":8718,"Ġconcepts":8719,"Ġcease":8720,"ĠPortal":8721,"ĠRights":8722,"ĠHolocaust":8723,"Ġsquare":8724,"Ġdeeply":8725,"Ġutterly":8726,"Aust":8727,"Apr":8728,"God":8729,"Taj":8730,"Wik":8731,"yers":8732,"ÙĨ":8733,"Ġic":8734,"Ġ....":8735,"Ġfought":8736,"Ġfont":8737,"icient":8738,"ĠIr":8739,"ĠSqu":8740,"ulating":8741,"ĠDirect":8742,"Ġrich":8743,"Ġrough":8744,"ĠTheory":8745,"ĠRome":8746,"ĠRoy":8747,"orting":8748,"ums":8749,"aren":8750,"Ġfactor":8751,"INT":8752,"tenance":8753,"Ġserver":8754,"ĠArbitration":8755,"Ġdescent":8756,"atures":8757,"Ġcausing":8758,"128":8759,"ĠSeems":8760,"Ġadvised":8761,"Ġminds":8762,"ĠSpain":8763,"Ġdescriptions":8764,"Ġweekend":8765,"Ġworthless":8766,"Ġlevels":8767,"Someone":8768,"ĠSystem":8769,"Anyway":8770,"Ġjournalist":8771,"Ġcosts":8772,"ĠSerbia":8773,"ĠNEVER":8774,"ĠCroatian":8775,"ĠMexico":8776,"ĠLouis":8777,"Ġelabor":8778,"HING":8779,"LES":8780,"MM":8781,"][":8782,"bie":8783,"mology":8784,"vandal":8785,"works":8786,"Ġpics":8787,"ĠToday":8788,"Ġstamp":8789,"ĠPhys":8790,"ĠDaniel":8791,"Ġadjust":8792,"ĠNazis":8793,"ardian":8794,"ĠThough":8795,"Ġeval":8796,"Ġmath":8797,"ĠVER":8798,"Ġ300":8799,"Ġinfer":8800,"Ġmiscon":8801,"Ġtempor":8802,"Ġtemporary":8803,"Ġplays":8804,"Ġ82":8805,"content":8806,"ophile":8807,"Ġelected":8808,"Ġreplaceable":8809,"Ġfocused":8810,"ĠEditing":8811,"rieved":8812,"Ġpermanently":8813,"Ġstrictly":8814,"Ġshooting":8815,"Ġoverwhelming":8816,"Head":8817,"IB":8818,"XX":8819,"je":8820,"isc":8821,"Ġwing":8822,"Ġbog":8823,"Ġhint":8824,"estic":8825,"ĠId":8826,"ĠIss":8827,"Ġrely":8828,"idel":8829,"igg":8830,"igion":8831,"ĠSikh":8832,"Ġsea":8833,"ista":8834,"ĠPur":8835,"urious":8836,"rial":8837,"Ġvill":8838,"leting":8839,"Ġcontemporary":8840,"Ġjerk":8841,"Ġmob":8842,"Ġassass":8843,"Ġheritage":8844,"Ġsynt":8845,"Ġavoided":8846,"209":8847,"together":8848,"Ġnominations":8849,"Ġhumor":8850,"Ġclassic":8851,"Ġthreaten":8852,"Ġmeaningful":8853,"ĠClinton":8854,"ĠPolit":8855,"Ġradical":8856,"Ġcellspacing":8857,"ĠInstitute":8858,"Ġachieved":8859,"Ġdecline":8860,"ĠWWE":8861,"hetor":8862,"Resp":8863,"January":8864,"((":8865,"Ma":8866,"RD":8867,"Roman":8868,"Take":8869,"dog":8870,"kh":8871,"zech":8872,"Ðº":8873,"Ġcos":8874,"ancing":8875,"oting":8876,"ental":8877,"ĠAut":8878,"Ġconvey":8879,"ĠPot":8880,"ila":8881,"urday":8882,"ĠHaving":8883,"ĠFace":8884,"Ġunbiased":8885,"ĠLo":8886,"uming":8887,"Ġquiet":8888,"pty":8889,"Ġenfor":8890,"Ġperpet":8891,"Ġpark":8892,"Ġcommittee":8893,"Ġregister":8894,"Ġentered":8895,"Ġgeneration":8896,"Ġscheme":8897,"Ġcorrections":8898,"ĠANON":8899,"Ġcolour":8900,"Ġpatience":8901,"Ġidentical":8902,"Once":8903,"ĠPlay":8904,"................":8905,"Ġstrength":8906,"Ġperceived":8907,"Ġwithdraw":8908,"ĠProtest":8909,"Ġplatform":8910,"ĠKosovo":8911,"Like":8912,"Media":8913,"Sem":8914,"first":8915,"uing":8916,"uct":8917,"Ġaka":8918,"original":8919,"Ġballs":8920,"ĠIQ":8921,"Ġwhilst":8922,"ĠCO":8923,"ĠCla":8924,"ĠChat":8925,"ĠPIE":8926,"ĠMatt":8927,"ĠMILLION":8928,"ĠFil":8929,"Ġexhib":8930,"ĠNone":8931,"pelled":8932,"ĠRog":8933,"Ġdiss":8934,"riter":8935,"conf":8936,"Ġfinds":8937,"Ġentertain":8938,"Ġtexts":8939,"122":8940,"Ġvalues":8941,"Ġretired":8942,"ĠMario":8943,"Ġeffectively":8944,"regon":8945,"Ġjudgment":8946,"ĠGuy":8947,"Contribs":8948,"Ġerase":8949,"consensus":8950,"Ġassertions":8951,"ĠBulgarian":8952,"Ġenforcement":8953,"Ġdangerous":8954,"Ġaccomplish":8955,"ĠPHILIP":8956,"Ġparaphr":8957,"Current":8958,"Even":8959,"IZ":8960,"Sy":8961,"Sch":8962,"WIK":8963,"bad":8964,"las":8965,"mann":8966,"rus":8967,"tar":8968,"Ġtips":8969,"ĠIII":8970,"arter":8971,"ĠTra":8972,"Ġorient":8973,"ĠMilitary":8974,"ĠFred":8975,"ĠNever":8976,"Ġheight":8977,"ĠLE":8978,"ĠOlymp":8979,"Ġpreference":8980,"Ġcomply":8981,"Ġattend":8982,"Ġreliability":8983,"Ġsupply":8984,"ĠReally":8985,"Ġdifferently":8986,"OOD":8987,"ĠSecret":8988,"inson":8989,"130":8990,"Ġdouche":8991,"Ġsearching":8992,"Ġcapacity":8993,"Ġremained":8994,"Ġphrases":8995,"Ġproposing":8996,"Ġconsistency":8997,"Ġfamilies":8998,"keep":8999,"ĠItaly":9000,"suit":9001,"Ġfemin":9002,"People":9003,"Ġdynam":9004,"Ġsuddenly":9005,"YMOUS":9006,"ĠPHILIPPIN":9007,"_(":9008,"cern":9009,"house":9010,"Î¿":9011,"atural":9012,"Ġbanning":9013,"Ġhous":9014,"ĠTre":9015,"ĠTamil":9016,"ima":9017,"ĠSE":9018,"ĠSep":9019,"ĠSOME":9020,"ĠBat":9021,"ĠPan":9022,"ela":9023,"Ġproxy":9024,"Ġshop":9025,"ĠHo":9026,"ĠHenry":9027,"ĠName":9028,"ĠNice":9029,"ishop":9030,"Ġintim":9031,"odd":9032,"Ġmangina":9033,"110":9034,"149":9035,"istical":9036,"Ġqualifies":9037,"Ġdepends":9038,"254":9039,"ĠService":9040,"Ġvisible":9041,"Ġrepresentation":9042,"Ġcapable":9043,"Ġdeaths":9044,"Ġinsulted":9045,"Ġincorrectly":9046,"Ġphysic":9047,"ĠCarol":9048,"Ġrecommended":9049,"Ġderived":9050,"Ġblatantly":9051,"Ġdisplayed":9052,"Neutral":9053,"Ġscholarship":9054,"ĠDepartment":9055,"ĠLibrary":9056,"Ġmusical":9057,"ĠANONYMOUS":9058,"HA":9059,"HE":9060,"Nazi":9061,"Possibly":9062,"irop":9063,"mes":9064,"sn":9065,"will":9066,"resh":9067,"iser":9068,"Ġpump":9069,"ĠIll":9070,"Ġnasty":9071,"agger":9072,"Ġeh":9073,"ĠSA":9074,"sem":9075,"ĠBlo":9076,"ĠPub":9077,"ĠMos":9078,"Ġrarely":9079,"ĠRaul":9080,"Ġgoals":9081,"Ġmanif":9082,"Ġprice":9083,"Ġclearer":9084,"ĠHead":9085,"195":9086,"Ġcommunities":9087,"142":9088,"144":9089,"Ġcris":9090,"Ġdoub":9091,"STOP":9092,"Ġabsence":9093,"Ġcontacted":9094,"ĠRegarding":9095,"Ġmeaningless":9096,"prof":9097,"THING":9098,"Ġtranslate":9099,"ĠTruth":9100,"ĠManual":9101,"ĠQuest":9102,"ĠWithout":9103,"Ġslap":9104,"Ġbullying":9105,"ĠPolicies":9106,"involved":9107,"Ġaggressive":9108,"Ġprivileges":9109,"ĠPHILIPPINES":9110,"!).":9111,"Dep":9112,"DIE":9113,"Last":9114,"Need":9115,"def":9116,"mand":9117,"nox":9118,"oil":9119,"polit":9120,"Ġupp":9121,"ito":9122,"eder":9123,"especially":9124,"Ġreverse":9125,"ĠTAB":9126,"Ġglo":9127,"Ġsect":9128,"ĠMid":9129,"Ġshape":9130,"rier":9131,"ĠDie":9132,"Ġrare":9133,"Ġrise":9134,"term":9135,"iev":9136,"uper":9137,"ĠGlobal":9138,"ĠLos":9139,"ĠOnt":9140,"indu":9141,"ultural":9142,"archy":9143,"ampion":9144,"Ġlegally":9145,"ĠProv":9146,"Ġhandled":9147,"ĠZion":9148,"Ġcomplicated":9149,"ĠConserv":9150,"***":9151,"Ġjoining":9152,"Requested":9153,"Ġreleases":9154,"Ġsuperior":9155,"Ġsurprising":9156,"ĠMinister":9157,"Ġpredict":9158,"ĠDICK":9159,"ĠCommunity":9160,"CAUSE":9161,"Ġroute":9162,"Ġrevealed":9163,"Ġancestry":9164,"ephen":9165,"ĠAzerbaijan":9166,"ĠPEOPLE":9167,"DP":9168,"FOR":9169,"Greetings":9170,"NC":9171,"Name":9172,"bro":9173,"ea":9174,"national":9175,"ĠÄ":9176,"Ġwinning":9177,"orum":9178,"Ġmilit":9179,"uts":9180,"ĠWM":9181,"Ġhabit":9182,"ĠBB":9183,"Ġprod":9184,"ĠFamily":9185,"ĠFootball":9186,"Ġsocks":9187,"rait":9188,"eworthy":9189,"Ġrelative":9190,"ressive":9191,"Ġoverly":9192,"ĠTHERE":9193,"Ġdefault":9194,"Ġinstru":9195,"aware":9196,"Ġemot":9197,"Ġscen":9198,"Ġscreens":9199,"Ġroyal":9200,"ropriately":9201,"Ġkinda":9202,"Ġharder":9203,"Ġhistorically":9204,"Ġappearing":9205,"Ġwonderful":9206,"Ġskin":9207,"ĠReport":9208,"Ġaccordingly":9209,"Ġcleaning":9210,"Ġfootnotes":9211,"Ġconsistently":9212,"Ġinfluenced":9213,"Ġeconomy":9214,"ĠIntroduction":9215,"Ġdivision":9216,"umni":9217,"Reply":9218,"ĠAlexander":9219,"================":9220,"Ġobservation":9221,"Ġbuddy":9222,"ĠARTICLE":9223,"Agreed":9224,"210":9225,"GW":9226,"Old":9227,"PO":9228,"power":9229,"inity":9230,"rex":9231,"Ġboo":9232,"Ġbud":9233,"Ġanime":9234,"Ġnoun":9235,"agle":9236,"ĠWhether":9237,"roc":9238,"iac":9239,"ĠSom":9240,"adow":9241,"Ġsuf":9242,"ĠPS":9243,"illion":9244,"Ġrhetor":9245,"Ġvac":9246,"Ġaltogether":9247,"ĠLine":9248,"Ġleaves":9249,"ĠOver":9250,"!!!!!!!":9251,"Ġfactors":9252,"Ġprime":9253,"Ġgenocide":9254,"111":9255,"Ġincivility":9256,"Ġ64":9257,"Ġcolle":9258,"Ġflat":9259,"ĠOriginal":9260,"Ġheader":9261,"Ġpurch":9262,"ĠOnline":9263,"Ġrepeating":9264,"Ġ1999":9265,"Ġlacks":9266,"topic":9267,"Ġmassacre":9268,"Ġmotion":9269,"Ġamongst":9270,"Ġfields":9271,"Ġmotherfuck":9272,"Ġalternate":9273,"Ġcorrupt":9274,"Special":9275,"ĠAdmins":9276,"Ġcompetition":9277,"ĠApparently":9278,"Class":9279,"ĠPHILIPPINESLONG":9280,"216":9281,"Oct":9282,"aed":9283,"fair":9284,"language":9285,"pat":9286,"rage":9287,"Ġtort":9288,"Ġtherap":9289,"Ġsac":9290,"Ġfals":9291,"idering":9292,"imm":9293,"ĠAg":9294,"stant":9295,"then":9296,"Ġconce":9297,"Ġstance":9298,"ĠBab":9299,"Ġdoctor":9300,"ĠMP":9301,"ĠDark":9302,"emon":9303,"Ġjur":9304,"Ġintr":9305,"endment":9306,"Ġremote":9307,"Ġpreceding":9308,"Ġchrist":9309,"Ġgeneric":9310,"cyclopedic":9311,"Ġexposed":9312,"Ġencyclopaedia":9313,"Ġ67":9314,"Ġconstruction":9315,"Ġdemocracy":9316,"Ġclasses":9317,"Ġcovering":9318,"Ġparticipating":9319,"Ġscientist":9320,"Ġdrama":9321,"Ġsupposedly":9322,"Ġbuildings":9323,"Ġinitially":9324,"Ġperformed":9325,"Ġcourtesy":9326,"Ġintentionally":9327,"Ġexclusively":9328,"ĠSecondly":9329,"ĠFrequently":9330,"ĠDaily":9331,"ĠNobody":9332,"ĠGeorgia":9333,"Ġgarbage":9334,"ĠScotland":9335,"Ġunusual":9336,"iÄĩ":9337,"212":9338,"Dude":9339,"March":9340,"Pol":9341,"VI":9342,"uer":9343,"written":9344,"Ġtribes":9345,"oured":9346,"Ġbab":9347,"Ġbarely":9348,"Ġpending":9349,"Ġhomin":9350,"\"\":":9351,"ĠTop":9352,"ĠWolf":9353,"amn":9354,"sex":9355,"Ġstable":9356,"Ġsteal":9357,"open":9358,"olics":9359,"ĠCE":9360,"ateful":9361,"urp":9362,"ĠDen":9363,"ĠFa":9364,"ĠRom":9365,"cession":9366,"Ġworries":9367,"Ġmode":9368,"Ġacted":9369,"Ġparl":9370,"Ġspoke":9371,"Ġverification":9372,"ibet":9373,"rative":9374,"Ġscore":9375,"Ġideal":9376,"112":9377,"Ġ[]":9378,"107":9379,"Ġdetect":9380,"ockey":9381,"Ġ98":9382,"teen":9383,"ĠSpam":9384,"ĠBritann":9385,"aiwan":9386,"olicy":9387,"ortunate":9388,"Ġreligions":9389,"Ġrevolution":9390,"Ġparticipated":9391,"Ġpersistent":9392,"Ġportal":9393,"Ġsynthesis":9394,"Ġpleasure":9395,"Ġundoing":9396,"Ġantis":9397,"ĠOffice":9398,"ĠJerusalem":9399,"ĠClearly":9400,"Ġdeemed":9401,"ĠEducation":9402,"Post":9403,"Personal":9404,"WN":9405,"fix":9406,"Ġ^":9407,"Ġain":9408,"inct":9409,"Ġmiles":9410,"Ġfif":9411,"Ġfest":9412,"asia":9413,"Ġgent":9414,"utter":9415,"owl":9416,"ĠAW":9417,"ĠShan":9418,"ĠSah":9419,"amin":9420,"isted":9421,"ĠPri":9422,"ira":9423,"ĠMs":9424,"oore":9425,"anti":9426,"ĠRay":9427,"ups":9428,"ĠEconom":9429,"umer":9430,"arts":9431,"udge":9432,"ĠUsing":9433,"elling":9434,"ĠKenn":9435,"Ġchoo":9436,"Ġguarant":9437,"Ġplanned":9438,"Ġsuppl":9439,"139":9440,"Islam":9441,"oval":9442,"STARD":9443,"Ġboys":9444,"Ġmembership":9445,"OWN":9446,"Ġtranslations":9447,"Ġmarks":9448,"Contributions":9449,"Ġinterpreted":9450,"Ġempire":9451,"Ġopposing":9452,"Ġsurprise":9453,"ĠIMD":9454,"Ġlabeled":9455,"Ġreduced":9456,"Ġreplies":9457,"Ġthoroughly":9458,"oppy":9459,"Ġexercise":9460,"Ġcongrat":9461,"April":9462,"Co":9463,"Hoo":9464,"Jack":9465,"PT":9466,"gon":9467,"long":9468,"place":9469,"rick":9470,"vest":9471,"Ã¤":9472,"ĸº":9473,"anc":9474,"Ġdrawn":9475,"asant":9476,"aron":9477,"ĠTW":9478,"thur":9479,"chi":9480,"Ġsees":9481,"ĠCross":9482,"ĠHoly":9483,"riel":9484,"bles":9485,"ĠDictionary":9486,"alker":9487,"mention":9488,"Ġring":9489,"ĠNic":9490,"ndrome":9491,"ĠLittle":9492,"ĠJosh":9493,"ongwarrior":9494,"ĠThink":9495,"ograp":9496,"Ġmole":9497,"Ġoutright":9498,"ession":9499,"ĠKat":9500,"peror":9501,"aph":9502,"Ġattached":9503,"Ġsaved":9504,"ĠInformation":9505,"!!!!!!!!!":9506,"Ġcommit":9507,"Ġempty":9508,"Ġguidance":9509,"prus":9510,"Ġbrings":9511,"spot":9512,"Ġtransport":9513,"Ġawesome":9514,"cientific":9515,"Ġauthoritative":9516,"Ġresulted":9517,"Ġassumptions":9518,"Ġindication":9519,"Ġmedi":9520,"Ġtypically":9521,"Ġturning":9522,"ĠWHERE":9523,"ĠPhot":9524,"Ġboxes":9525,"Ġcomputers":9526,"ĠBECAUSE":9527,"Ġreflects":9528,"Ġeducational":9529,"Ġ1970":9530,"Ġcombined":9531,"ĠSupreme":9532,"Removed":9533,"ĠBiographies":9534,"Ġsuspicious":9535,"Ġpetty":9536,"Ġhatred":9537,"create":9538,"emitism":9539,"ĠEspecially":9540,"Ġauthentic":9541,"Tajin":9542,"ĠOntario":9543,"Black":9544,"Hope":9545,"USS":9546,"]\"\"":9547,"gh":9548,"iop":9549,"atible":9550,"Ġbatt":9551,"Ġborrow":9552,"Ġcars":9553,"Ġfits":9554,"Ġinherent":9555,"ĠTa":9556,"iams":9557,"ĠSand":9558,"atell":9559,"Ġproving":9560,"ĠHel":9561,"ĠHell":9562,"Ġneo":9563,"ĠDave":9564,"ĠNations":9565,"ĠGive":9566,"ĠLab":9567,"ĠJordan":9568,"cuss":9569,"Ġimplying":9570,"Ġrepost":9571,"Ġpersec":9572,"ĠView":9573,"Ġvandalised":9574,"Ġregions":9575,"ĠAndy":9576,"ĠAli":9577,"licensed":9578,"Ġcontinually":9579,"Ġinstit":9580,"Review":9581,"ĠUniverse":9582,"Ġ45":9583,"Ġpromin":9584,"127":9585,"104":9586,"108":9587,"ĠProf":9588,"ĠAdam":9589,"Ġsurface":9590,"Ġauto":9591,"blocked":9592,"Ġorganized":9593,"Ġrespective":9594,"Ġdisagrees":9595,"Ġpatent":9596,"ĠLeave":9597,"ruptive":9598,"Ġexperiences":9599,"Ġswear":9600,"Ġoperating":9601,"Ġcopies":9602,"ĠSyria":9603,"Ġallegation":9604,"interpret":9605,"Ġforgotten":9606,"Featured":9607,"Ġmotivated":9608,"Ġphotographs":9609,"ĠBASTARD":9610,"ophobia":9611,"emitic":9612,"Ġflawed":9613,"Ġneighbor":9614,"Ġbizarre":9615,"Ġunreasonable":9616,"iropract":9617,")âĢİ":9618,"Eh":9619,"KK":9620,"Ste":9621,"TT":9622,"author":9623,"bed":9624,"mpt":9625,"sis":9626,"Ġ''":9627,"atical":9628,"orph":9629,"Ġcir":9630,"Ġmil":9631,"Ġfly":9632,"Ġinev":9633,"Ġrename":9634,"ĠTown":9635,"Ġnoteworthy":9636,"ĠWTC":9637,"Ġhaz":9638,"igration":9639,"ĠSlav":9640,"ĠSouthern":9641,"ĠCa":9642,"ĠCare":9643,"ĠCopyright":9644,"ĠCSD":9645,"ĠPL":9646,"irk":9647,"ĠMen":9648,"ĠMAN":9649,"ilater":9650,"illed":9651,"Ġabused":9652,"ĠDoug":9653,"ĠFour":9654,"ĠRus":9655,"ĠOtt":9656,"Ġspa":9657,"Ġspending":9658,"Ġregime":9659,"oston":9660,"ertainly":9661,"Ġworldwide":9662,"105":9663,"Ġnorthern":9664,"207":9665,"162":9666,"226":9667,"inners":9668,"Char":9669,"Ġhumans":9670,"ĠCommission":9671,"rolling":9672,"Ġgovernments":9673,"251":9674,"Ġmodify":9675,"ournals":9676,"ĠAssy":9677,"Ġessential":9678,"instein":9679,"Ġsensitive":9680,"Feb":9681,"Ġlayout":9682,"ĠDemocratic":9683,"Ġruling":9684,"Copyrights":9685,"ĠSwedish":9686,"SIX":9687,"Ġphenomenon":9688,"Ġtemporarily":9689,"Ac":9690,"Bar":9691,"GO":9692,"HO":9693,"June":9694,"Jewish":9695,"MENT":9696,"bn":9697,"ouche":9698,"atically":9699,"Ġpp":9700,"Ġpan":9701,"Ġpal":9702,"Ġpuppets":9703,"Ġreconsider":9704,"ĠTag":9705,"ĠAge":9706,"aylor":9707,"chester":9708,"unting":9709,"ifle":9710,"Ġsty":9711,"Ġstress":9712,"istered":9713,"Ġdevice":9714,"ĠCath":9715,"ĠCamb":9716,"ĠCiting":9717,"ĠPenn":9718,"Ġexchange":9719,"Ġvir":9720,"ĠGame":9721,"ĠLic":9722,"plan":9723,"ĠYouTube":9724,"Ġspelled":9725,"Ġtheme":9726,"ĠKy":9727,"ĠKevin":9728,"except":9729,"ĠStan":9730,"ĠAltern":9731,"Ġconfuse":9732,"Ġsigns":9733,"Ġmisinformation":9734,"shire":9735,"Ġpersonality":9736,"Ġteen":9737,"Ġcounts":9738,"IDE":9739,"Ġinsp":9740,"Ġbrown":9741,"Ġrestoring":9742,"Ġadvantage":9743,"ĠBeing":9744,"Ġdistribution":9745,"176":9746,"Star":9747,"Ġdiscret":9748,"ĠZeal":9749,"240":9750,"Ġspeaker":9751,"Ġpromotes":9752,"September":9753,"Ġexpanding":9754,"Ġarbitrary":9755,"ĠEveryone":9756,"ospital":9757,"Ġunreferenced":9758,"Ġrenaming":9759,"Ġsweet":9760,"importance":9761,"Proposed":9762,"Ġdistinguish":9763,"Ġbrowser":9764,"ĠCommonwealth":9765,"ĠPIECE":9766,"Ġintimid":9767,"Big":9768,"Med":9769,"Mich":9770,"NPA":9771,"Two":9772,"sight":9773,"uge":9774,"Ġ]":9775,"Ġax":9776,"edly":9777,"Ġmaxim":9778,"Ġdress":9779,"imal":9780,"ĠWel":9781,"ĠWild":9782,"cean":9783,"stone":9784,"Ġdeals":9785,"ĠMic":9786,"ĠMake":9787,"ĠMOS":9788,"Ġrubb":9789,"ĠExt":9790,"lab":9791,"ĠOregon":9792,"Ġwhats":9793,"ryan":9794,"geles":9795,"Ġoutline":9796,"elled":9797,"Ġmanagement":9798,"Ġactively":9799,"Ġcreates":9800,"Ġimpartial":9801,"Ġassault":9802,"ĠStr":9803,"ocation":9804,"Ġthrowing":9805,"Ġscandal":9806,"Ġinteraction":9807,"Ġ74":9808,"120":9809,"Ġsituations":9810,"ricane":9811,"170":9812,"Ġcrowd":9813,"Ġvariable":9814,"247":9815,"Ġprocesses":9816,"Ġlocations":9817,"ĠSometimes":9818,"ICAN":9819,"Ġ1991":9820,"Ġvalidity":9821,"Ġunfortunate":9822,"ĠPrime":9823,"speaking":9824,"Ġpaying":9825,"Ġimmediate":9826,"ĠArabs":9827,"Ġsufficiently":9828,"Ġconducted":9829,"IVIL":9830,"Ġpsychology":9831,"Ġlosing":9832,"Ġruled":9833,"Ġultimately":9834,"Ġsalute":9835,"Ġincomplete":9836,"++++":9837,"reviewed":9838,"Ġadvocate":9839,"Ġambiguous":9840,"Ġlyrics":9841,"ĠNetwork":9842,"ĠVirginia":9843,"Ġadvertisement":9844,"Ġerroneous":9845,"Ġcrisis":9846,"ographer":9847,"GOT":9848,"News":9849,"Sign":9850,"TALK":9851,"Very":9852,"track":9853,"Ã§":9854,"Ġ\\":9855,"Ġ}}":9856,"ĠØ§ÙĦ":9857,"Ġtur":9858,"Ġsarc":9859,"Ġcodes":9860,"otal":9861,"Ġlately":9862,"Ġgoo":9863,"Ġarb":9864,"ĠSS":9865,"cha":9866,"una":9867,"Ġstock":9868,"ĠPacific":9869,"ĠMORE":9870,"ils":9871,"ĠFight":9872,"Ġwearing":9873,"eman":9874,"Ġjeal":9875,"ĠRod":9876,"raf":9877,"arden":9878,"ĠOp":9879,"Ġnose":9880,"Ġpert":9881,"Ġgrateful":9882,"Ġpray":9883,"Ġpartisan":9884,"Ġsuppress":9885,"Ġcopyvio":9886,"Ġputs":9887,"Ġwritings":9888,"Ġinfringe":9889,"Revert":9890,"118":9891,"Ġinsight":9892,"Ġstudied":9893,"Ġdistance":9894,"Ġopponents":9895,"222":9896,"Ġsolved":9897,"Ġstays":9898,"Ġfalla":9899,"arliament":9900,"Ġwatched":9901,"Ġdepartment":9902,"Ġsooner":9903,"Ġjobs":9904,"Ġethn":9905,"Ġinvestigations":9906,"Ġflags":9907,"ĠEDIE":9908,"ĠMacedonians":9909,"Ġcitizen":9910,"Ġkingdom":9911,"Ġdozens":9912,"Ġillustrate":9913,"Ġholid":9914,"Ġinserting":9915,"Ġdisgusting":9916,"Ġforgive":9917,"Award":9918,"Bob":9919,"LC":9920,"Looks":9921,"Mo":9922,"Try":9923,"World":9924,"case":9925,"cuse":9926,"eous":9927,"sen":9928,"sid":9929,"size":9930,"Ġtough":9931,"inet":9932,"Ġhel":9933,"Ġdance":9934,"asm":9935,"enty":9936,"ĠAk":9937,"stal":9938,"Ġ(+":9939,"ĠCreat":9940,"ĠBusiness":9941,"Ġorg":9942,"etball":9943,"ĠMason":9944,"Ġprost":9945,"ĠHam":9946,"Ġunion":9947,"Ġsoap":9948,"ĠRather":9949,"ĠGames":9950,"Ġpoet":9951,"ĠEle":9952,"ĠOrange":9953,"Ġpreferences":9954,"ĠYoung":9955,"jective":9956,"acter":9957,"ificant":9958,"Ġfeet":9959,"gging":9960,"Ġowns":9961,"Ġsigning":9962,"Ġconsiderable":9963,"retch":9964,"Ġinvolves":9965,"204":9966,"174":9967,"Ġmerger":9968,"ĠZe":9969,"deletion":9970,"ĠSpace":9971,"Ġ1995":9972,"Ġrevised":9973,"Ġsky":9974,"ETIME":9975,"ĠSeriously":9976,"Ġpractical":9977,"TABTAB":9978,"Unfortunately":9979,"Ġmagn":9980,"Ġteaching":9981,"Ġaudience":9982,"Ġannounce":9983,"Ġobserved":9984,"ĠRevolution":9985,"Ġalphab":9986,"WIKIPEDIA":9987,"!?":9988,"500":9989,"James":9990,"Mon":9991,"NU":9992,"hol":9993,"human":9994,"prom":9995,"took":9996,"wer":9997,"zen":9998,"Ä±":9999}